// Auto-generated TFLite model header
// Model size: 41,320 bytes
// Features: 511
// Accuracy: 97.33%
// F1-Score: 0.9747

#pragma once
#include <stdint.h>

const unsigned int model_len = 41320;
alignas(8) const unsigned char model[] = {
  0x1c, 0x00, 0x00, 0x00, 0x54, 0x46, 0x4c, 0x33, 0x14, 0x00, 0x20, 0x00, 0x1c, 0x00, 0x18, 0x00,
  0x14, 0x00, 0x10, 0x00, 0x0c, 0x00, 0x00, 0x00, 0x08, 0x00, 0x04, 0x00, 0x14, 0x00, 0x00, 0x00,
  0x1c, 0x00, 0x00, 0x00, 0x8c, 0x00, 0x00, 0x00, 0x0c, 0x01, 0x00, 0x00, 0x10, 0x8e, 0x00, 0x00,
  0x20, 0x8e, 0x00, 0x00, 0xfc, 0xa0, 0x00, 0x00, 0x03, 0x00, 0x00, 0x00, 0x01, 0x00, 0x00, 0x00,
  0x04, 0x00, 0x00, 0x00, 0x9e, 0x71, 0xff, 0xff, 0x0c, 0x00, 0x00, 0x00, 0x1c, 0x00, 0x00, 0x00,
  0x3c, 0x00, 0x00, 0x00, 0x0f, 0x00, 0x00, 0x00, 0x73, 0x65, 0x72, 0x76, 0x69, 0x6e, 0x67, 0x5f,
  0x64, 0x65, 0x66, 0x61, 0x75, 0x6c, 0x74, 0x00, 0x01, 0x00, 0x00, 0x00, 0x04, 0x00, 0x00, 0x00,
  0x68, 0xff, 0xff, 0xff, 0x0d, 0x00, 0x00, 0x00, 0x04, 0x00, 0x00, 0x00, 0x08, 0x00, 0x00, 0x00,
  0x6f, 0x75, 0x74, 0x70, 0x75, 0x74, 0x5f, 0x30, 0x00, 0x00, 0x00, 0x00, 0x01, 0x00, 0x00, 0x00,
  0x04, 0x00, 0x00, 0x00, 0x76, 0x72, 0xff, 0xff, 0x04, 0x00, 0x00, 0x00, 0x0c, 0x00, 0x00, 0x00,
  0x6b, 0x65, 0x72, 0x61, 0x73, 0x5f, 0x74, 0x65, 0x6e, 0x73, 0x6f, 0x72, 0x00, 0x00, 0x00, 0x00,
  0x03, 0x00, 0x00, 0x00, 0x5c, 0x00, 0x00, 0x00, 0x2c, 0x00, 0x00, 0x00, 0x04, 0x00, 0x00, 0x00,
  0xb8, 0xff, 0xff, 0xff, 0x11, 0x00, 0x00, 0x00, 0x04, 0x00, 0x00, 0x00, 0x13, 0x00, 0x00, 0x00,
  0x43, 0x4f, 0x4e, 0x56, 0x45, 0x52, 0x53, 0x49, 0x4f, 0x4e, 0x5f, 0x4d, 0x45, 0x54, 0x41, 0x44,
  0x41, 0x54, 0x41, 0x00, 0xdc, 0xff, 0xff, 0xff, 0x10, 0x00, 0x00, 0x00, 0x04, 0x00, 0x00, 0x00,
  0x13, 0x00, 0x00, 0x00, 0x6d, 0x69, 0x6e, 0x5f, 0x72, 0x75, 0x6e, 0x74, 0x69, 0x6d, 0x65, 0x5f,
  0x76, 0x65, 0x72, 0x73, 0x69, 0x6f, 0x6e, 0x00, 0x08, 0x00, 0x0c, 0x00, 0x08, 0x00, 0x04, 0x00,
  0x08, 0x00, 0x00, 0x00, 0x0f, 0x00, 0x00, 0x00, 0x04, 0x00, 0x00, 0x00, 0x13, 0x00, 0x00, 0x00,
  0x6d, 0x69, 0x6e, 0x5f, 0x72, 0x75, 0x6e, 0x74, 0x69, 0x6d, 0x65, 0x5f, 0x76, 0x65, 0x72, 0x73,
  0x69, 0x6f, 0x6e, 0x00, 0x12, 0x00, 0x00, 0x00, 0x00, 0x8d, 0x00, 0x00, 0xf8, 0x8c, 0x00, 0x00,
  0xe4, 0x8c, 0x00, 0x00, 0xbc, 0x8c, 0x00, 0x00, 0x6c, 0x8c, 0x00, 0x00, 0x5c, 0x8a, 0x00, 0x00,
  0xcc, 0x89, 0x00, 0x00, 0xbc, 0x81, 0x00, 0x00, 0xac, 0x80, 0x00, 0x00, 0xdc, 0x00, 0x00, 0x00,
  0xd4, 0x00, 0x00, 0x00, 0xcc, 0x00, 0x00, 0x00, 0xc4, 0x00, 0x00, 0x00, 0xbc, 0x00, 0x00, 0x00,
  0xb4, 0x00, 0x00, 0x00, 0x94, 0x00, 0x00, 0x00, 0x74, 0x00, 0x00, 0x00, 0x04, 0x00, 0x00, 0x00,
  0x62, 0x73, 0xff, 0xff, 0x04, 0x00, 0x00, 0x00, 0x60, 0x00, 0x00, 0x00, 0x0c, 0x00, 0x00, 0x00,
  0x08, 0x00, 0x0e, 0x00, 0x08, 0x00, 0x04, 0x00, 0x08, 0x00, 0x00, 0x00, 0x10, 0x00, 0x00, 0x00,
  0x28, 0x00, 0x00, 0x00, 0x00, 0x00, 0x06, 0x00, 0x08, 0x00, 0x04, 0x00, 0x06, 0x00, 0x00, 0x00,
  0x04, 0x00, 0x00, 0x00, 0x01, 0x00, 0x00, 0x00, 0xeb, 0x03, 0x00, 0x00, 0x0c, 0x00, 0x18, 0x00,
  0x14, 0x00, 0x10, 0x00, 0x0c, 0x00, 0x04, 0x00, 0x0c, 0x00, 0x00, 0x00, 0x50, 0x4a, 0xae, 0x51,
  0xf6, 0x2c, 0xe4, 0x36, 0x02, 0x00, 0x00, 0x00, 0x02, 0x00, 0x00, 0x00, 0x04, 0x00, 0x00, 0x00,
  0x06, 0x00, 0x00, 0x00, 0x32, 0x2e, 0x31, 0x39, 0x2e, 0x30, 0x00, 0x00, 0xce, 0x73, 0xff, 0xff,
  0x04, 0x00, 0x00, 0x00, 0x10, 0x00, 0x00, 0x00, 0x00, 0x00, 0x00, 0x00, 0x00, 0x00, 0x00, 0x00,
  0x00, 0x00, 0x00, 0x00, 0x00, 0x00, 0x00, 0x00, 0xea, 0x73, 0xff, 0xff, 0x04, 0x00, 0x00, 0x00,
  0x10, 0x00, 0x00, 0x00, 0x31, 0x2e, 0x31, 0x34, 0x2e, 0x30, 0x00, 0x00, 0x00, 0x00, 0x00, 0x00,
  0x00, 0x00, 0x00, 0x00, 0x40, 0x73, 0xff, 0xff, 0x44, 0x73, 0xff, 0xff, 0x48, 0x73, 0xff, 0xff,
  0x4c, 0x73, 0xff, 0xff, 0x50, 0x73, 0xff, 0xff, 0x1a, 0x74, 0xff, 0xff, 0x04, 0x00, 0x00, 0x00,
  0xc0, 0x7f, 0x00, 0x00, 0x00, 0x01, 0x01, 0x01, 0xff, 0x01, 0x00, 0xff, 0x02, 0x02, 0x01, 0x02,
  0x00, 0x00, 0xff, 0x00, 0x01, 0x00, 0xfe, 0x01, 0xff, 0x01, 0xff, 0xfe, 0xff, 0xfe, 0xff, 0xff,
  0x01, 0x00, 0xff, 0x02, 0x02, 0x02, 0x00, 0x02, 0x00, 0x00, 0x02, 0xff, 0xff, 0xff, 0x00, 0xff,
  0x01, 0x00, 0x01, 0xff, 0xfd, 0x00, 0xfe, 0xfe, 0x00, 0xfe, 0x01, 0x01, 0xff, 0x00, 0x01, 0x02,
  0x01, 0x01, 0xff, 0x00, 0xff, 0x02, 0x01, 0x01, 0x01, 0x00, 0x01, 0xff, 0xfe, 0x00, 0xfd, 0xfd,
  0xfe, 0x02, 0xff, 0xff, 0x01, 0x00, 0x01, 0xff, 0xfd, 0xfd, 0x00, 0x01, 0xff, 0x02, 0xff, 0x02,
  0xff, 0x02, 0xfe, 0xfd, 0xff, 0xfe, 0xfe, 0xff, 0xfb, 0xfc, 0xff, 0x02, 0x00, 0x01, 0x03, 0x02,
  0x03, 0x01, 0x04, 0x00, 0x03, 0xff, 0xfe, 0xfe, 0x00, 0x02, 0x02, 0xfe, 0x00, 0x01, 0x01, 0xfe,
  0xfe, 0xfe, 0x00, 0x01, 0xff, 0xff, 0x00, 0xff, 0x00, 0xff, 0x01, 0x00, 0x01, 0x03, 0x03, 0x00,
  0x02, 0x01, 0x00, 0x03, 0xff, 0x02, 0xff, 0x00, 0x01, 0xfd, 0x01, 0xfe, 0xff, 0xfe, 0x01, 0xff,
  0xff, 0xfe, 0xfd, 0xfd, 0xff, 0xff, 0xff, 0x01, 0x00, 0x01, 0x00, 0xfe, 0x00, 0x01, 0x00, 0x00,
  0x02, 0x02, 0xff, 0xff, 0xfe, 0xff, 0xff, 0xfe, 0xfd, 0xfe, 0x01, 0xfe, 0xff, 0x01, 0x01, 0xfe,
  0xfd, 0xff, 0x01, 0xff, 0xfe, 0xff, 0xfe, 0xfe, 0xfd, 0xfc, 0xfd, 0xfe, 0xff, 0x01, 0xfe, 0xff,
  0x00, 0x01, 0x00, 0xff, 0xfd, 0xff, 0x00, 0x01, 0x00, 0x00, 0x02, 0x01, 0xff, 0xfe, 0x00, 0xfe,
  0xfe, 0xfd, 0xfe, 0xfe, 0xfe, 0xfd, 0x01, 0x00, 0x00, 0x00, 0x01, 0x00, 0x00, 0xfc, 0xfd, 0x00,
  0xff, 0x01, 0xfe, 0x01, 0xfd, 0xfd, 0x00, 0x01, 0x01, 0x01, 0xff, 0xff, 0x00, 0xfd, 0xfe, 0x01,
  0xfd, 0xfd, 0xfd, 0xfd, 0x00, 0xfe, 0x01, 0x00, 0x00, 0xfe, 0xff, 0x02, 0x02, 0xff, 0x00, 0xff,
  0xff, 0xfe, 0xff, 0x02, 0x00, 0xff, 0x00, 0xff, 0xff, 0x00, 0xff, 0x00, 0x03, 0x00, 0x00, 0x02,
  0x01, 0xff, 0xfd, 0xfc, 0xfc, 0x00, 0xfd, 0x00, 0x01, 0x04, 0x04, 0x04, 0x01, 0x00, 0x00, 0x01,
  0xfe, 0x01, 0x00, 0x01, 0xfd, 0xff, 0xfe, 0xfd, 0x01, 0xff, 0xfe, 0x00, 0xff, 0xff, 0x01, 0x00,
  0x02, 0x00, 0xfd, 0xfe, 0xfd, 0xfd, 0xfe, 0xff, 0x04, 0x02, 0x01, 0x04, 0x02, 0x01, 0x02, 0x01,
  0xfe, 0xff, 0xfe, 0x00, 0x00, 0xff, 0x00, 0x01, 0x00, 0x00, 0x04, 0x01, 0x02, 0x01, 0xff, 0x02,
  0xfe, 0x00, 0xff, 0xfe, 0xff, 0xfe, 0xfe, 0x00, 0x01, 0x02, 0x02, 0xff, 0x02, 0xff, 0xff, 0xfe,
  0xfc, 0xff, 0x00, 0xfd, 0xfe, 0x00, 0x02, 0x03, 0xff, 0x00, 0x02, 0x00, 0x00, 0x02, 0x02, 0x01,
  0x00, 0x01, 0x02, 0x02, 0x01, 0x03, 0x01, 0x02, 0x04, 0x03, 0x02, 0x00, 0x00, 0x00, 0x02, 0xff,
  0xff, 0x01, 0xff, 0x01, 0xff, 0x03, 0x01, 0x04, 0x04, 0x03, 0x01, 0x00, 0x00, 0xff, 0x02, 0x01,
  0x02, 0x01, 0xff, 0x01, 0xff, 0x01, 0x02, 0x00, 0x01, 0x04, 0x00, 0xff, 0xff, 0xfe, 0x00, 0xfe,
  0x00, 0xfe, 0x02, 0x00, 0x02, 0x03, 0x03, 0x00, 0xfe, 0xfe, 0xfe, 0x01, 0x00, 0x02, 0xff, 0xfe,
  0x01, 0xff, 0x01, 0xff, 0x01, 0x01, 0x03, 0x02, 0x02, 0x02, 0x02, 0x03, 0xff, 0x00, 0x01, 0x02,
  0x01, 0xfd, 0xff, 0xff, 0xfd, 0x01, 0x02, 0x02, 0x02, 0xff, 0xff, 0x00, 0x00, 0xfd, 0xfd, 0xfd,
  0xfe, 0xff, 0xff, 0x01, 0x00, 0x01, 0xff, 0xff, 0xfb, 0xfe, 0xff, 0xfd, 0xff, 0xff, 0xff, 0xff,
  0xfe, 0xff, 0xff, 0x00, 0xfd, 0xfe, 0x01, 0x00, 0x02, 0x06, 0x02, 0xff, 0xff, 0xf8, 0xf7, 0xf8,
  0x04, 0x21, 0x7f, 0x01, 0xff, 0x02, 0xfe, 0xff, 0xff, 0x00, 0x01, 0x00, 0x00, 0x00, 0xfe, 0xff,
  0x01, 0xff, 0x01, 0x01, 0xfe, 0x00, 0xff, 0x02, 0xff, 0x00, 0x01, 0x01, 0x00, 0x01, 0x00, 0xfe,
  0x01, 0xff, 0x01, 0xff, 0xff, 0x00, 0xff, 0x01, 0xff, 0x01, 0x00, 0x00, 0x00, 0xfe, 0x00, 0x00,
  0x00, 0xff, 0x02, 0xff, 0x01, 0x01, 0x01, 0x01, 0xff, 0xff, 0xff, 0x00, 0x00, 0xff, 0x02, 0x00,
  0x02, 0x01, 0x00, 0xff, 0xff, 0x00, 0x02, 0x02, 0xff, 0x00, 0xff, 0x01, 0xfe, 0x01, 0x00, 0x00,
  0x01, 0xff, 0xff, 0x02, 0x02, 0x00, 0x00, 0xff, 0x00, 0xff, 0x00, 0x00, 0x01, 0x02, 0xff, 0x00,
  0xff, 0xff, 0xff, 0x02, 0xff, 0xff, 0x01, 0x00, 0x00, 0xfe, 0x01, 0x01, 0x01, 0x00, 0xfe, 0x00,
  0xff, 0x01, 0x00, 0xff, 0xff, 0x01, 0x02, 0x00, 0xff, 0x02, 0x00, 0x01, 0xfe, 0x00, 0xfe, 0x00,
  0x01, 0x00, 0xff, 0x01, 0x00, 0x02, 0x00, 0xff, 0x01, 0xff, 0xff, 0x01, 0x00, 0x00, 0xff, 0x00,
  0x01, 0x01, 0xff, 0x00, 0x02, 0xff, 0x00, 0x00, 0x00, 0x00, 0x00, 0x00, 0x00, 0xff, 0x01, 0x01,
  0xff, 0x00, 0xfe, 0x01, 0xff, 0x00, 0x02, 0x00, 0x02, 0x01, 0x00, 0x00, 0x01, 0x00, 0x00, 0x00,
  0x02, 0x01, 0x01, 0x03, 0xff, 0xfe, 0x00, 0x01, 0x00, 0xff, 0x01, 0x00, 0xff, 0xff, 0x01, 0xfe,
  0xff, 0x00, 0xff, 0x01, 0x00, 0x01, 0x00, 0xfe, 0xff, 0x00, 0x02, 0x02, 0x00, 0xff, 0x01, 0xff,
  0x01, 0xfe, 0x00, 0xfe, 0x01, 0x00, 0x00, 0xff, 0x01, 0x01, 0x00, 0xff, 0x00, 0x00, 0x00, 0xff,
  0x01, 0x00, 0x00, 0x00, 0x00, 0xff, 0x00, 0x02, 0x01, 0x00, 0x00, 0x00, 0xff, 0x00, 0x01, 0x00,
  0x01, 0xff, 0x00, 0xfe, 0x00, 0xff, 0xff, 0x00, 0xfe, 0x01, 0x01, 0x01, 0x01, 0x00, 0x01, 0x00,
  0x00, 0xff, 0x01, 0x00, 0xfe, 0x01, 0x00, 0xff, 0x00, 0x02, 0xff, 0x02, 0xff, 0x01, 0x02, 0xff,
  0xff, 0x02, 0x00, 0x02, 0x02, 0x00, 0x00, 0xff, 0xff, 0xff, 0x00, 0xff, 0x00, 0x01, 0x02, 0x01,
  0xff, 0x01, 0x00, 0x00, 0x01, 0x00, 0x00, 0x00, 0x00, 0x00, 0x00, 0xff, 0x00, 0x01, 0x00, 0x00,
  0xfe, 0xff, 0x00, 0x00, 0x00, 0x01, 0xff, 0xff, 0xff, 0x00, 0x01, 0x00, 0xfe, 0xfe, 0x00, 0xff,
  0x01, 0x01, 0x01, 0xfe, 0x01, 0xff, 0x01, 0x00, 0xfe, 0x00, 0x00, 0x02, 0x00, 0x01, 0x02, 0xff,
  0x01, 0xff, 0xff, 0x00, 0x00, 0xff, 0x02, 0x01, 0xff, 0xff, 0xff, 0x01, 0x01, 0x00, 0x00, 0x00,
  0x01, 0x00, 0xfe, 0x01, 0x00, 0x00, 0xfe, 0x00, 0x01, 0x01, 0x00, 0x01, 0x02, 0x00, 0xff, 0x00,
  0x00, 0x00, 0x00, 0x01, 0x00, 0x00, 0xfe, 0x01, 0x00, 0x01, 0x00, 0xff, 0x00, 0xff, 0x00, 0xfe,
  0x01, 0x00, 0xff, 0x00, 0xff, 0x00, 0x00, 0x00, 0x00, 0xff, 0xfe, 0xff, 0x00, 0x01, 0x02, 0x00,
  0x00, 0x00, 0x00, 0xfd, 0xff, 0x00, 0xff, 0x00, 0xff, 0xff, 0xff, 0x00, 0xff, 0x01, 0xff, 0x01,
  0x01, 0x01, 0x00, 0x02, 0xff, 0xfe, 0xff, 0xff, 0xff, 0x01, 0x01, 0x00, 0x00, 0x00, 0xff, 0x00,
  0xfe, 0xff, 0x01, 0x01, 0x01, 0x02, 0xff, 0xff, 0x01, 0x00, 0x00, 0x01, 0x00, 0x01, 0x01, 0x02,
  0x00, 0x01, 0xff, 0x00, 0x00, 0x02, 0x01, 0xff, 0x01, 0xff, 0xfe, 0xff, 0xff, 0x00, 0x00, 0x01,
  0xff, 0x00, 0xff, 0xff, 0xff, 0x00, 0x00, 0x00, 0x00, 0x00, 0x02, 0xff, 0x01, 0x00, 0xff, 0x01,
  0x00, 0x00, 0x00, 0x00, 0x00, 0x00, 0x00, 0x00, 0x01, 0x00, 0xff, 0x00, 0x00, 0x01, 0x01, 0x00,
  0xff, 0xfd, 0xfc, 0xfc, 0xfe, 0x02, 0x02, 0x06, 0x07, 0x03, 0x00, 0xfa, 0xf3, 0xef, 0xf0, 0xf9,
  0x1c, 0x7f, 0x01, 0x04, 0x03, 0x04, 0x08, 0x07, 0x06, 0x00, 0x02, 0xff, 0x02, 0x06, 0x02, 0x05,
  0x03, 0x03, 0x08, 0x02, 0x00, 0x02, 0x01, 0x01, 0xfe, 0xfc, 0xfe, 0x01, 0x01, 0x01, 0xfd, 0xfb,
  0xfe, 0xfd, 0xfc, 0x00, 0x00, 0xff, 0x02, 0xff, 0x05, 0x06, 0x03, 0x02, 0x06, 0xff, 0x03, 0xfb,
  0xfe, 0xfd, 0x02, 0x02, 0x05, 0x05, 0x03, 0x00, 0x00, 0x04, 0xfe, 0xff, 0xfe, 0x05, 0x01, 0xfd,
  0xff, 0xf9, 0xf9, 0x00, 0xff, 0xfa, 0x02, 0x01, 0x04, 0x09, 0x06, 0x04, 0x07, 0x03, 0x02, 0x02,
  0x02, 0x00, 0xfc, 0xfb, 0x00, 0xfb, 0xfb, 0x02, 0x01, 0xfc, 0xfb, 0xfb, 0xfc, 0xfc, 0xfd, 0xfc,
  0xfe, 0xf9, 0xfd, 0xfc, 0xf8, 0xfa, 0xfa, 0xf8, 0x00, 0xfb, 0x00, 0x03, 0xfe, 0xfd, 0xff, 0xfe,
  0x01, 0xfe, 0x01, 0x02, 0xfc, 0x00, 0x01, 0x03, 0x01, 0x03, 0x04, 0x04, 0x05, 0x00, 0xfe, 0x02,
  0xfe, 0x05, 0x07, 0x02, 0x06, 0x07, 0x02, 0xff, 0x04, 0x01, 0x01, 0x02, 0x04, 0xfc, 0xfb, 0xfe,
  0x00, 0xfc, 0xff, 0xff, 0xfa, 0x02, 0xff, 0x04, 0xfc, 0xfe, 0xff, 0xfe, 0xff, 0x02, 0xfe, 0xfe,
  0x02, 0x01, 0x04, 0x02, 0x03, 0x01, 0x05, 0xff, 0x04, 0x01, 0x07, 0x00, 0x04, 0x08, 0x05, 0x06,
  0x03, 0x01, 0xfe, 0x01, 0xff, 0xff, 0xfb, 0xff, 0x01, 0x02, 0x02, 0xff, 0x01, 0x00, 0x01, 0x00,
  0x02, 0xfe, 0x04, 0x05, 0x02, 0x03, 0xfc, 0xff, 0x04, 0x04, 0x03, 0x05, 0x04, 0x02, 0x03, 0x00,
  0xff, 0x01, 0x02, 0xfc, 0xfe, 0xfe, 0xfc, 0x02, 0x04, 0xff, 0xff, 0x06, 0x06, 0x04, 0x05, 0x04,
  0x02, 0x01, 0x04, 0x01, 0xfe, 0xfb, 0x00, 0xfc, 0xfd, 0xff, 0x00, 0xfc, 0x00, 0x01, 0xfd, 0xff,
  0x00, 0xfd, 0xff, 0xf8, 0xfc, 0xfe, 0xfb, 0xfb, 0xfc, 0xf8, 0x00, 0xff, 0xfc, 0x02, 0x00, 0x06,
  0x06, 0xff, 0xff, 0x06, 0x02, 0x04, 0xff, 0x01, 0xfb, 0x01, 0xfe, 0xfc, 0xf7, 0xfb, 0xfe, 0xfb,
  0xfe, 0x01, 0xfd, 0x02, 0x03, 0xfd, 0x05, 0x02, 0x05, 0xfd, 0xfd, 0x04, 0x04, 0xfd, 0xfd, 0xfc,
  0x04, 0xfd, 0x04, 0x01, 0x01, 0x03, 0x01, 0xfe, 0xfc, 0xfa, 0xfe, 0xff, 0xfa, 0xfe, 0xf8, 0xf5,
  0xfb, 0xf7, 0xf7, 0xf7, 0xfa, 0x01, 0x02, 0x05, 0x05, 0x02, 0x07, 0x06, 0x03, 0x06, 0x03, 0xff,
  0xfe, 0x03, 0x01, 0x05, 0xfe, 0x03, 0x01, 0xff, 0x02, 0xff, 0xfe, 0xfe, 0xf8, 0xfc, 0xfa, 0xf5,
  0xf3, 0xf8, 0xf6, 0xf6, 0xf3, 0xfa, 0xf7, 0xfd, 0xfb, 0xff, 0x03, 0x02, 0x01, 0x01, 0x02, 0x02,
  0x03, 0x03, 0x01, 0x00, 0x00, 0x05, 0x06, 0x03, 0x00, 0x05, 0xfe, 0xfe, 0xff, 0xfc, 0xfe, 0xfa,
  0xf9, 0xfb, 0xf8, 0xf5, 0xf7, 0xfb, 0xf9, 0x02, 0x00, 0xfe, 0x02, 0x05, 0x06, 0x04, 0x08, 0x08,
  0x02, 0xfe, 0x01, 0x02, 0x02, 0x07, 0x03, 0x06, 0x00, 0x01, 0x03, 0x04, 0xfe, 0xff, 0x05, 0x04,
  0xfe, 0xff, 0x04, 0xff, 0x03, 0x00, 0xfe, 0xfe, 0x04, 0x05, 0x04, 0x00, 0xff, 0x00, 0x06, 0x06,
  0x05, 0xfe, 0xfc, 0xff, 0xfc, 0xfd, 0xfd, 0xff, 0x02, 0x05, 0x03, 0xff, 0x04, 0x02, 0xfe, 0x02,
  0x01, 0x04, 0x00, 0x01, 0x00, 0xfb, 0xfa, 0xf9, 0xf9, 0x00, 0x00, 0xfc, 0x00, 0x04, 0x01, 0x05,
  0x00, 0x05, 0x02, 0x07, 0x02, 0x06, 0xff, 0x02, 0xfe, 0x04, 0x03, 0x00, 0x02, 0xff, 0x00, 0xfe,
  0x01, 0xfa, 0xfb, 0xf8, 0xfd, 0xfe, 0xfb, 0xff, 0xfa, 0xfe, 0xfb, 0xfb, 0xfa, 0xf9, 0x00, 0xfb,
  0x02, 0xff, 0x00, 0x00, 0x06, 0xfd, 0x01, 0xfe, 0xfa, 0xfb, 0xfb, 0xf7, 0xfe, 0xff, 0xfb, 0xff,
  0xfb, 0xfa, 0xfe, 0xfe, 0xfd, 0xfd, 0xfe, 0x04, 0x02, 0x01, 0xf7, 0xf0, 0xed, 0xf0, 0xf9, 0x16,
  0x7f, 0xff, 0xfd, 0xfc, 0xfa, 0xfc, 0x06, 0x06, 0xfe, 0x04, 0xfc, 0x06, 0x03, 0x03, 0x01, 0xfd,
  0x06, 0x02, 0xfb, 0xfc, 0x05, 0xfd, 0x02, 0x08, 0xfe, 0x01, 0x01, 0x06, 0x01, 0x02, 0xfd, 0xfd,
  0xfa, 0xfe, 0xfd, 0x00, 0x05, 0x02, 0x09, 0x08, 0xff, 0xfe, 0x01, 0xfa, 0xfc, 0xfa, 0xf5, 0xfb,
  0xf8, 0xfa, 0xfe, 0xfb, 0xfb, 0xff, 0xfe, 0x04, 0xfd, 0xfd, 0x06, 0x02, 0x05, 0x00, 0xff, 0xfd,
  0x01, 0x01, 0xf7, 0xfc, 0x00, 0xfc, 0x04, 0x08, 0x03, 0x05, 0x03, 0x0a, 0x0b, 0x07, 0x09, 0x02,
  0x07, 0x08, 0xfe, 0xff, 0xfd, 0x02, 0x02, 0xff, 0xfb, 0x00, 0xf6, 0xfa, 0xfc, 0x00, 0xfd, 0x00,
  0xfe, 0x03, 0x08, 0x09, 0xfe, 0x05, 0x06, 0x05, 0xff, 0xfd, 0x01, 0xfe, 0x08, 0x00, 0x07, 0x08,
  0xfe, 0x03, 0x04, 0x05, 0x04, 0xfe, 0x00, 0xfb, 0xff, 0x00, 0xfe, 0xfa, 0xfb, 0xfe, 0xfb, 0xfe,
  0xfe, 0x07, 0x07, 0x04, 0x05, 0x06, 0x07, 0x02, 0x04, 0x01, 0x02, 0x02, 0x05, 0x02, 0x03, 0x02,
  0xfc, 0xfa, 0xfb, 0x03, 0x02, 0x01, 0xfd, 0xfe, 0x03, 0x05, 0x04, 0x05, 0x03, 0x04, 0x05, 0x03,
  0x06, 0x05, 0x04, 0x06, 0x00, 0x00, 0x08, 0x03, 0x02, 0x06, 0x03, 0x03, 0x04, 0x04, 0xfe, 0xfd,
  0xfc, 0x01, 0xfa, 0xf8, 0xf7, 0xfc, 0xfa, 0xf3, 0xfb, 0xfb, 0xf7, 0xf7, 0xf7, 0xfb, 0xfd, 0xfd,
  0x02, 0x03, 0xfc, 0x05, 0xfb, 0x04, 0x00, 0xf9, 0xff, 0xf9, 0xfb, 0x00, 0xfb, 0xfe, 0x00, 0x07,
  0x01, 0x04, 0x04, 0x07, 0xff, 0xff, 0xfb, 0xfc, 0xf7, 0xfa, 0xf8, 0xfc, 0xff, 0x02, 0x03, 0x07,
  0x03, 0x05, 0x07, 0x04, 0xfd, 0x04, 0xfd, 0x01, 0x01, 0x03, 0x01, 0xfd, 0xf9, 0xfa, 0xfc, 0x00,
  0x00, 0x04, 0x0b, 0x07, 0x0a, 0x03, 0x08, 0x05, 0x03, 0x05, 0x01, 0x02, 0xfe, 0xfe, 0x0a, 0x06,
  0x08, 0x07, 0xfd, 0x01, 0x02, 0xfd, 0xfa, 0xf9, 0x00, 0xf6, 0xfd, 0xf9, 0xf9, 0xfa, 0xff, 0x00,
  0xfb, 0x01, 0xff, 0xfd, 0x03, 0x02, 0x04, 0x09, 0x09, 0x0a, 0x01, 0x03, 0x00, 0x04, 0x01, 0x04,
  0x05, 0x06, 0x02, 0xfe, 0x03, 0x04, 0x00, 0x00, 0x04, 0x01, 0xf8, 0x00, 0xf6, 0xf5, 0xf5, 0xf9,
  0xf8, 0xfb, 0x02, 0xfc, 0x03, 0xfe, 0xfc, 0xf9, 0x01, 0xfa, 0x00, 0xfe, 0xf9, 0x01, 0xfa, 0xfb,
  0xfa, 0x04, 0xfe, 0x00, 0xfb, 0xff, 0x01, 0x02, 0xfe, 0xfe, 0xfb, 0xfb, 0x00, 0x06, 0xfe, 0xfc,
  0x02, 0x00, 0xf7, 0xf8, 0xfd, 0xfb, 0xf8, 0xf5, 0xf7, 0xf3, 0xfa, 0xfa, 0xfa, 0xf7, 0xfb, 0xfb,
  0xf5, 0xf7, 0xfd, 0x01, 0x02, 0x06, 0xfd, 0xfe, 0x01, 0x01, 0x06, 0x02, 0x01, 0x05, 0x08, 0xff,
  0x04, 0x08, 0xfd, 0x04, 0xfc, 0xfd, 0xfa, 0xf8, 0xf3, 0xf0, 0xf5, 0xf6, 0xf6, 0xfa, 0xf8, 0xfa,
  0xfb, 0xff, 0xfc, 0xfc, 0xfd, 0x06, 0x02, 0x02, 0x03, 0x06, 0x0f, 0x08, 0x0b, 0x0e, 0x08, 0x08,
  0x07, 0x08, 0x0c, 0x04, 0x04, 0x05, 0x07, 0x09, 0x0e, 0x0e, 0x0e, 0x07, 0x05, 0x01, 0x05, 0xff,
  0x06, 0x03, 0xff, 0x07, 0x0b, 0x08, 0x0a, 0x05, 0x02, 0x05, 0xfe, 0x04, 0x01, 0x02, 0x05, 0x04,
  0x03, 0x06, 0x05, 0x04, 0x10, 0x0c, 0x0c, 0x10, 0x07, 0x05, 0x0a, 0x04, 0x06, 0xfe, 0xfe, 0x04,
  0x04, 0x03, 0x00, 0x03, 0xfc, 0x01, 0xfd, 0xf8, 0xfc, 0xfc, 0xf9, 0xfe, 0xff, 0xf9, 0xf9, 0x00,
  0xfd, 0xf6, 0xf2, 0xf4, 0xfa, 0xf8, 0xf6, 0xf5, 0xf8, 0x00, 0xfe, 0xfd, 0xfa, 0xfd, 0xf6, 0xfc,
  0xf8, 0xfc, 0xf8, 0xf9, 0xf9, 0xfa, 0xf5, 0xf4, 0xef, 0xf0, 0xf7, 0xf6, 0xfc, 0xfe, 0xff, 0xfb,
  0x05, 0x00, 0xfe, 0xf6, 0xf6, 0xf1, 0xea, 0xe8, 0xec, 0xf1, 0xf5, 0xfb, 0xf9, 0xea, 0xd0, 0x81,
  0x01, 0xff, 0x01, 0xff, 0x00, 0x00, 0xff, 0xff, 0x01, 0x00, 0x01, 0x00, 0xff, 0x00, 0xff, 0xfd,
  0x00, 0xff, 0x02, 0xff, 0x02, 0x00, 0xfe, 0x00, 0x00, 0x00, 0xfe, 0xfe, 0x00, 0xff, 0x00, 0xfe,
  0x00, 0x00, 0x01, 0xff, 0x01, 0x00, 0x01, 0xff, 0x01, 0xfe, 0xff, 0x00, 0x01, 0x00, 0x01, 0xff,
  0xff, 0xff, 0xff, 0xfe, 0x00, 0x01, 0x00, 0x00, 0x01, 0x00, 0x01, 0x01, 0x02, 0x02, 0x00, 0x01,
  0x00, 0x01, 0xff, 0x01, 0xfe, 0xff, 0x00, 0xfe, 0xfd, 0x01, 0xff, 0xfe, 0x01, 0x00, 0x00, 0x01,
  0x02, 0x01, 0x01, 0x01, 0x00, 0xfe, 0x00, 0xff, 0x01, 0x01, 0x00, 0xff, 0x00, 0x01, 0x00, 0xfe,
  0x01, 0xfe, 0xff, 0x01, 0x02, 0x02, 0x00, 0x01, 0xff, 0x00, 0x01, 0x01, 0xff, 0x01, 0x01, 0x00,
  0xff, 0xff, 0x01, 0x02, 0x02, 0xff, 0xff, 0xff, 0x01, 0x00, 0x01, 0x00, 0x01, 0xfe, 0x00, 0xfe,
  0x00, 0x00, 0x00, 0x00, 0xff, 0xff, 0x00, 0xff, 0xff, 0xff, 0x01, 0x02, 0xff, 0x02, 0x01, 0xff,
  0x01, 0x02, 0xff, 0xff, 0x00, 0xff, 0x01, 0x01, 0x01, 0xff, 0x00, 0xff, 0x00, 0xfe, 0xff, 0x02,
  0x00, 0x00, 0x00, 0xff, 0x01, 0xff, 0x00, 0x01, 0x01, 0xff, 0x01, 0xff, 0x01, 0xfe, 0x01, 0x01,
  0x00, 0x00, 0x03, 0x00, 0x01, 0x00, 0xff, 0x01, 0x00, 0x02, 0xff, 0x01, 0x00, 0x00, 0x01, 0xff,
  0x00, 0x00, 0xff, 0x00, 0x00, 0x02, 0x01, 0x00, 0xff, 0x00, 0x01, 0x00, 0x00, 0xff, 0x01, 0xff,
  0xff, 0x01, 0x02, 0xff, 0xff, 0xfe, 0xff, 0x01, 0x01, 0xff, 0x01, 0xfe, 0x00, 0xff, 0xfd, 0xff,
  0xfe, 0x02, 0x01, 0x01, 0x01, 0x01, 0x00, 0x02, 0xfe, 0x01, 0xff, 0x00, 0xff, 0x01, 0x02, 0x02,
  0x00, 0x02, 0x01, 0xff, 0xff, 0x01, 0x01, 0x01, 0x02, 0x02, 0xff, 0x02, 0x00, 0x01, 0x00, 0xff,
  0x00, 0x01, 0x00, 0x01, 0x01, 0x00, 0x02, 0xff, 0x02, 0x02, 0x00, 0x01, 0x00, 0x01, 0xfe, 0x00,
  0xfe, 0xff, 0xff, 0xff, 0x01, 0xff, 0x02, 0x00, 0xff, 0x01, 0xff, 0x00, 0xff, 0x00, 0xff, 0x00,
  0xff, 0x01, 0xfe, 0x00, 0xff, 0xff, 0x01, 0x00, 0x00, 0x02, 0x00, 0x01, 0x00, 0x02, 0x01, 0x00,
  0x00, 0xff, 0xff, 0x00, 0x02, 0xff, 0x01, 0x00, 0x00, 0x00, 0xff, 0x00, 0x01, 0x00, 0xff, 0x00,
  0xfd, 0xfe, 0x01, 0xfe, 0xfe, 0x00, 0x02, 0xfe, 0xff, 0x00, 0xff, 0x01, 0x01, 0x00, 0x01, 0xff,
  0x00, 0x01, 0xff, 0xff, 0x01, 0xff, 0xfe, 0x00, 0x00, 0x00, 0xfe, 0xff, 0x02, 0x02, 0x00, 0x03,
  0x01, 0x01, 0x00, 0x00, 0xfe, 0xff, 0xfe, 0x02, 0x01, 0x01, 0x01, 0x01, 0x02, 0xff, 0xff, 0x02,
  0xff, 0x01, 0xff, 0x00, 0x00, 0xff, 0xfe, 0x01, 0x01, 0xff, 0x01, 0x02, 0x03, 0x04, 0x00, 0x03,
  0x00, 0x00, 0xff, 0xff, 0xff, 0xff, 0xff, 0x01, 0xff, 0x00, 0x00, 0xfe, 0x00, 0xff, 0xfd, 0x00,
  0x01, 0x00, 0x03, 0x02, 0xff, 0x00, 0x01, 0xff, 0xff, 0x00, 0x00, 0x02, 0x00, 0x02, 0x01, 0x01,
  0xff, 0x01, 0xfe, 0x00, 0xfd, 0x00, 0xfe, 0x01, 0x00, 0x01, 0x00, 0x00, 0x00, 0x00, 0xfe, 0xfd,
  0xfe, 0x01, 0x00, 0x02, 0x02, 0xfe, 0xfd, 0xfe, 0x00, 0xfe, 0x01, 0xff, 0x00, 0x00, 0x00, 0x00,
  0x01, 0x01, 0x00, 0xff, 0x00, 0x00, 0xff, 0x01, 0x01, 0xfe, 0x00, 0xfe, 0xff, 0x00, 0xfe, 0x01,
  0x01, 0x01, 0x01, 0xfe, 0xff, 0xfd, 0x01, 0xff, 0xff, 0x02, 0x01, 0xff, 0xff, 0x01, 0xfe, 0xfe,
  0xfd, 0xfe, 0x01, 0x01, 0xff, 0x01, 0x02, 0xff, 0xff, 0x02, 0x00, 0x00, 0xfe, 0xfe, 0x01, 0xff,
  0x02, 0x02, 0x01, 0xfe, 0xfb, 0xfb, 0xfd, 0x00, 0x03, 0x0d, 0x12, 0x11, 0x04, 0xe4, 0x81, 0xfd,
  0xfd, 0x01, 0xfe, 0x05, 0x01, 0x00, 0x00, 0x03, 0xfd, 0xff, 0xfc, 0x01, 0x01, 0x01, 0x00, 0x02,
  0xfd, 0x02, 0x00, 0x00, 0xfd, 0x01, 0x01, 0x01, 0xff, 0xff, 0x00, 0x03, 0x01, 0x03, 0x02, 0x01,
  0x01, 0x03, 0xfe, 0x02, 0x04, 0xff, 0x01, 0x04, 0xfe, 0xff, 0xff, 0xfd, 0x01, 0xfd, 0x00, 0xff,
  0xfe, 0x03, 0x03, 0x03, 0x02, 0x03, 0xfd, 0x03, 0xff, 0x01, 0x03, 0xff, 0x00, 0x01, 0xff, 0xff,
  0xfe, 0xfe, 0xfd, 0xfd, 0x00, 0xfe, 0xfe, 0x03, 0x02, 0x00, 0x02, 0x00, 0x00, 0xff, 0xfe, 0xfe,
  0x01, 0xfc, 0xfe, 0x01, 0x00, 0x02, 0x07, 0x03, 0x05, 0x02, 0x01, 0x02, 0xfe, 0xff, 0xfe, 0x03,
  0xfe, 0x02, 0xfe, 0x01, 0x02, 0xff, 0xff, 0x00, 0x00, 0xfc, 0x01, 0xfe, 0xfd, 0x02, 0xfe, 0x04,
  0x03, 0x03, 0xfe, 0x03, 0x01, 0xfe, 0x01, 0x00, 0x05, 0x03, 0x00, 0x03, 0x05, 0x00, 0x05, 0x00,
  0x03, 0x03, 0x00, 0x00, 0xff, 0x00, 0x00, 0x00, 0x01, 0x00, 0xfe, 0x02, 0x01, 0x04, 0x01, 0xff,
  0x04, 0xfe, 0x02, 0x00, 0xfe, 0xfe, 0xff, 0x01, 0x05, 0x02, 0xff, 0xff, 0x00, 0x02, 0x02, 0xfd,
  0xfe, 0x00, 0x03, 0x00, 0xff, 0x04, 0x04, 0x01, 0x01, 0xff, 0x03, 0x04, 0xfe, 0x03, 0x03, 0x01,
  0xfd, 0xfc, 0xfb, 0x00, 0xfe, 0x00, 0xfd, 0xfb, 0x01, 0x01, 0x00, 0xfe, 0xff, 0x02, 0x01, 0x04,
  0x00, 0xff, 0x04, 0x01, 0xff, 0xfd, 0xfc, 0xfc, 0xfa, 0xfd, 0x03, 0x03, 0x05, 0x05, 0x06, 0x03,
  0x02, 0x00, 0x00, 0x04, 0x00, 0xfe, 0xfc, 0x00, 0xfb, 0xff, 0xfc, 0xfb, 0xff, 0xfe, 0x00, 0xfe,
  0x00, 0x06, 0x02, 0x01, 0x02, 0xff, 0x00, 0xff, 0x01, 0xff, 0xfd, 0xfe, 0x01, 0xfe, 0xff, 0xfd,
  0x01, 0x00, 0x01, 0xfd, 0x02, 0x00, 0x00, 0x01, 0xff, 0x03, 0xfd, 0xff, 0x02, 0xfd, 0xfd, 0xfe,
  0xfe, 0xfe, 0xfe, 0x00, 0x01, 0xfe, 0xfe, 0x00, 0x02, 0xfc, 0xfc, 0xfe, 0xff, 0x01, 0x01, 0x00,
  0xfc, 0xff, 0xfa, 0xfe, 0xfd, 0xfd, 0x00, 0x01, 0x02, 0x02, 0xfe, 0x03, 0x00, 0xff, 0x01, 0xff,
  0x01, 0xfe, 0xfc, 0xff, 0xfe, 0xff, 0xfe, 0xff, 0xfa, 0xfb, 0xff, 0x01, 0x01, 0xfd, 0x00, 0x00,
  0xfd, 0xfe, 0xfc, 0xfd, 0xfc, 0xfd, 0x00, 0xff, 0x05, 0x06, 0x04, 0x05, 0x03, 0x03, 0xfe, 0x03,
  0x03, 0x04, 0x01, 0xff, 0x01, 0x02, 0xff, 0x03, 0x04, 0x05, 0x00, 0x03, 0x02, 0x05, 0x03, 0x03,
  0x01, 0x03, 0x00, 0x03, 0x01, 0x04, 0x03, 0xff, 0x02, 0xfc, 0x00, 0x00, 0xfe, 0xfd, 0xfe, 0x00,
  0x02, 0x05, 0x02, 0x04, 0x03, 0x00, 0x00, 0x02, 0xff, 0x03, 0x04, 0x02, 0x00, 0x06, 0x06, 0x05,
  0x05, 0x07, 0x03, 0x04, 0x04, 0x00, 0x04, 0x00, 0x02, 0xfd, 0xfe, 0xfe, 0xfe, 0x00, 0xfe, 0xff,
  0x02, 0x03, 0x02, 0x04, 0x01, 0x02, 0x01, 0x02, 0x03, 0x00, 0xfe, 0x00, 0xfd, 0x00, 0x01, 0x00,
  0xff, 0xff, 0xff, 0x00, 0x01, 0x01, 0x03, 0x03, 0x01, 0x02, 0x02, 0x00, 0x00, 0xff, 0xff, 0x01,
  0x02, 0x02, 0x05, 0x01, 0x02, 0x01, 0x00, 0x01, 0x03, 0x03, 0x01, 0x04, 0x03, 0x00, 0x04, 0x05,
  0x03, 0x02, 0x05, 0x02, 0x03, 0x03, 0x04, 0x01, 0x03, 0x04, 0x01, 0x04, 0x05, 0x03, 0x02, 0xff,
  0xff, 0x00, 0xfd, 0x00, 0xff, 0xff, 0x01, 0x00, 0x03, 0x00, 0x03, 0x02, 0xff, 0x03, 0x01, 0x03,
  0x02, 0xff, 0xfc, 0xff, 0xff, 0xfc, 0x02, 0x01, 0x02, 0x03, 0x02, 0x05, 0x02, 0x04, 0x04, 0x01,
  0x01, 0x00, 0xff, 0x03, 0xfc, 0xfe, 0xfc, 0xf9, 0xfe, 0xfc, 0xfd, 0xfa, 0xfd, 0xfd, 0x03, 0x00,
  0x04, 0x01, 0xfb, 0xfd, 0xf5, 0xf9, 0xfa, 0xfd, 0x04, 0x0a, 0x08, 0xfd, 0xe2, 0x81, 0x00, 0xff,
  0x01, 0x02, 0x01, 0x01, 0x01, 0x00, 0x01, 0xff, 0xff, 0xff, 0xff, 0x01, 0xfe, 0x01, 0x01, 0xfe,
  0x02, 0x01, 0xfe, 0xfd, 0x00, 0xfe, 0x00, 0x00, 0xfd, 0x00, 0xfd, 0xff, 0x00, 0xfe, 0x01, 0xfe,
  0xff, 0xfe, 0x00, 0xff, 0xfe, 0xff, 0x00, 0xfd, 0x00, 0x00, 0x02, 0xff, 0x02, 0x01, 0x00, 0xff,
  0xff, 0x01, 0xff, 0x01, 0x00, 0x00, 0x02, 0xff, 0x00, 0x02, 0xff, 0xff, 0xff, 0x01, 0xff, 0x00,
  0xfe, 0x00, 0xfe, 0xfe, 0xff, 0xff, 0xfe, 0x00, 0x02, 0x01, 0x00, 0x00, 0x01, 0x01, 0x01, 0x03,
  0xff, 0x00, 0x00, 0xff, 0xff, 0x00, 0xfd, 0xfe, 0x00, 0xff, 0x01, 0x01, 0x02, 0x03, 0x00, 0x03,
  0xff, 0x01, 0xff, 0x02, 0x00, 0x00, 0x01, 0x00, 0x00, 0xfe, 0x00, 0xff, 0x01, 0xff, 0xfe, 0xfe,
  0x01, 0x01, 0x00, 0xfe, 0x00, 0x01, 0x01, 0x02, 0x00, 0x00, 0x02, 0x00, 0x01, 0xff, 0x02, 0x01,
  0x00, 0x02, 0x03, 0x02, 0x00, 0x00, 0xff, 0xfe, 0xff, 0x01, 0xff, 0x00, 0x03, 0x01, 0x01, 0x01,
  0x01, 0x01, 0xff, 0xfe, 0x00, 0x01, 0xfe, 0x01, 0x01, 0x01, 0xff, 0xff, 0xff, 0xff, 0x02, 0x01,
  0x01, 0x00, 0x01, 0x01, 0x01, 0xff, 0xff, 0x00, 0x01, 0x02, 0x00, 0x01, 0x03, 0x02, 0x03, 0x00,
  0x01, 0x01, 0x00, 0x01, 0x00, 0x00, 0x03, 0x01, 0x03, 0xfe, 0x01, 0xff, 0x00, 0xff, 0x01, 0x02,
  0x01, 0x02, 0x01, 0x01, 0x00, 0xff, 0xfe, 0x01, 0xff, 0x02, 0x00, 0x02, 0xff, 0xfe, 0x01, 0x01,
  0xff, 0xff, 0x01, 0x02, 0x01, 0xff, 0x01, 0xff, 0xff, 0xfe, 0x00, 0xff, 0xff, 0x00, 0x01, 0xff,
  0x01, 0x00, 0x00, 0xff, 0x00, 0x02, 0x00, 0x02, 0x01, 0x01, 0x01, 0x00, 0x00, 0x02, 0x00, 0x02,
  0x02, 0x00, 0xff, 0x00, 0xff, 0x00, 0x00, 0xff, 0x02, 0x01, 0xfe, 0x00, 0x00, 0x00, 0xfe, 0xff,
  0xff, 0xfd, 0xff, 0x00, 0x02, 0x01, 0xff, 0x00, 0xfe, 0xfd, 0xfe, 0x00, 0xfd, 0xfd, 0x00, 0x01,
  0xfe, 0x00, 0x02, 0xff, 0xff, 0x01, 0x00, 0x01, 0xff, 0x01, 0x01, 0xfd, 0xff, 0x02, 0x00, 0x00,
  0x01, 0x00, 0xff, 0xfd, 0xfc, 0xff, 0xfe, 0xfb, 0xfe, 0x00, 0xff, 0x01, 0x00, 0xff, 0x02, 0xff,
  0xfe, 0xfe, 0xfe, 0xfe, 0x00, 0x01, 0x02, 0x03, 0x01, 0x01, 0xff, 0xff, 0xff, 0xfd, 0xfe, 0xfe,
  0x00, 0x01, 0x02, 0x02, 0x03, 0x02, 0x02, 0x01, 0x00, 0xfe, 0x00, 0xfd, 0xfe, 0xfe, 0xfd, 0x00,
  0xff, 0xfe, 0xfe, 0x00, 0xff, 0xff, 0x02, 0xfe, 0x03, 0x00, 0x02, 0x03, 0x01, 0x02, 0x01, 0xff,
  0x00, 0xff, 0xff, 0x00, 0xfe, 0xfe, 0xfd, 0xff, 0x00, 0xff, 0xff, 0x01, 0x03, 0x00, 0x01, 0x01,
  0x00, 0x04, 0x02, 0x02, 0x00, 0x02, 0x01, 0xfd, 0x02, 0x00, 0xff, 0x00, 0xff, 0x01, 0xfe, 0xff,
  0xff, 0x02, 0x02, 0x00, 0xff, 0x01, 0x00, 0x00, 0xfd, 0xff, 0xfb, 0xfc, 0xfd, 0x00, 0x00, 0xff,
  0xff, 0x02, 0x00, 0x02, 0xfe, 0x00, 0x00, 0xfe, 0xfd, 0x02, 0x00, 0x00, 0x00, 0xfe, 0xff, 0xff,
  0xfe, 0x01, 0x00, 0xfd, 0xff, 0xff, 0xfe, 0xfe, 0xff, 0x00, 0xff, 0xfe, 0x00, 0xfe, 0x01, 0x01,
  0x00, 0xff, 0x01, 0x00, 0xff, 0x00, 0xfe, 0xfe, 0xfc, 0xfe, 0x01, 0x01, 0x01, 0xff, 0x01, 0xfe,
  0xff, 0x01, 0xfe, 0x00, 0xfe, 0x00, 0xfc, 0xff, 0xfd, 0xfe, 0x00, 0x00, 0xff, 0xff, 0x01, 0x02,
  0xff, 0x01, 0xff, 0xff, 0x01, 0xfe, 0x02, 0x02, 0x03, 0x01, 0x01, 0x03, 0xff, 0xfe, 0x02, 0xfe,
  0x01, 0xff, 0x01, 0x02, 0x00, 0x01, 0x02, 0xfe, 0x02, 0xff, 0x00, 0xff, 0x03, 0x01, 0x03, 0x03,
  0x00, 0xff, 0xfd, 0xfb, 0xfb, 0x02, 0x06, 0x0e, 0x14, 0x12, 0x06, 0xe5, 0x81, 0x03, 0x01, 0xff,
  0x00, 0x01, 0xff, 0xff, 0xfe, 0x00, 0x01, 0x00, 0xfe, 0x01, 0x00, 0xfe, 0x00, 0xfe, 0x00, 0xff,
  0xfe, 0x01, 0x00, 0x02, 0x01, 0x00, 0x00, 0x00, 0x00, 0x02, 0x02, 0xff, 0x02, 0xff, 0xff, 0x01,
  0x00, 0xff, 0xff, 0xfe, 0x01, 0xff, 0x00, 0xff, 0x00, 0x00, 0xfe, 0xff, 0x00, 0x01, 0x01, 0x00,
  0x02, 0x00, 0x00, 0x02, 0xff, 0xfe, 0xff, 0xfe, 0x00, 0x00, 0xff, 0xfd, 0xff, 0x01, 0x00, 0x01,
  0x02, 0x00, 0x01, 0x02, 0x03, 0x02, 0xff, 0x02, 0x01, 0x01, 0x01, 0x00, 0x00, 0x00, 0x00, 0x00,
  0xff, 0xff, 0xfe, 0x00, 0xff, 0x00, 0x01, 0x01, 0xfe, 0xfe, 0xfe, 0xfe, 0x01, 0xff, 0x00, 0x00,
  0x01, 0x00, 0xfe, 0x01, 0x00, 0x01, 0x02, 0x02, 0xff, 0x01, 0x01, 0xfe, 0xff, 0xff, 0xfd, 0xff,
  0x01, 0x01, 0x02, 0x02, 0x00, 0x00, 0x02, 0x01, 0x00, 0xfe, 0x00, 0x00, 0x00, 0x00, 0xfe, 0xff,
  0x01, 0xff, 0xff, 0x01, 0x02, 0x00, 0x00, 0xff, 0xff, 0x01, 0x01, 0x00, 0x01, 0x01, 0x00, 0x02,
  0x02, 0x01, 0x00, 0x01, 0xff, 0x00, 0x00, 0x03, 0x01, 0x01, 0x02, 0x00, 0x01, 0x00, 0x00, 0x01,
  0x02, 0xff, 0xfe, 0xff, 0xfd, 0xff, 0x00, 0x01, 0x00, 0x03, 0x01, 0x02, 0x00, 0x03, 0x02, 0x01,
  0xff, 0xfe, 0x01, 0x00, 0xff, 0x00, 0x01, 0x00, 0x00, 0xfe, 0xff, 0xfe, 0x02, 0x00, 0xff, 0xfe,
  0x00, 0xfe, 0x00, 0xfe, 0x00, 0x01, 0x01, 0x00, 0x00, 0xff, 0x01, 0xff, 0xff, 0xff, 0x00, 0x01,
  0x01, 0x01, 0x03, 0x00, 0x00, 0x00, 0xfe, 0x00, 0x00, 0xfe, 0xff, 0x01, 0x00, 0xfe, 0xff, 0x01,
  0xfe, 0x02, 0x02, 0x00, 0xff, 0xfe, 0xfe, 0xff, 0xff, 0xff, 0x01, 0x01, 0x01, 0xfe, 0x01, 0xff,
  0x00, 0x00, 0x00, 0x02, 0xff, 0x01, 0xff, 0xff, 0x00, 0xff, 0x01, 0xff, 0x00, 0x00, 0x01, 0xfe,
  0x00, 0x00, 0xff, 0x01, 0xff, 0x00, 0x00, 0xff, 0xff, 0xff, 0xff, 0xfe, 0xfe, 0xfe, 0xfe, 0x00,
  0x00, 0x01, 0x02, 0x02, 0x01, 0xff, 0x01, 0x01, 0x00, 0x00, 0xfe, 0x00, 0xff, 0xfd, 0xfe, 0xfd,
  0x00, 0xff, 0x01, 0x02, 0x03, 0x00, 0x02, 0x00, 0x01, 0xfe, 0x00, 0xfd, 0xff, 0xff, 0xfc, 0x00,
  0xff, 0x02, 0x00, 0x02, 0x02, 0x00, 0x01, 0x02, 0x02, 0x02, 0x01, 0xff, 0xff, 0xff, 0x01, 0x00,
  0x01, 0xff, 0xff, 0x01, 0x00, 0x00, 0xfe, 0x01, 0xff, 0xfe, 0x00, 0x01, 0xfe, 0x01, 0x01, 0x00,
  0xfe, 0x02, 0xfe, 0xff, 0x02, 0x03, 0x02, 0x01, 0x01, 0xff, 0x02, 0x02, 0x03, 0x02, 0x02, 0x00,
  0x00, 0x01, 0x01, 0xfe, 0xfd, 0xff, 0xff, 0xff, 0xff, 0xff, 0xfe, 0xfe, 0x00, 0xff, 0x01, 0x01,
  0x00, 0x01, 0x00, 0x01, 0x01, 0x02, 0x00, 0x01, 0x00, 0x01, 0x02, 0x03, 0x00, 0x02, 0xff, 0x00,
  0x00, 0xff, 0x02, 0x02, 0x00, 0x02, 0x02, 0x00, 0x01, 0xff, 0x01, 0xff, 0x01, 0x01, 0x01, 0x01,
  0xfe, 0xff, 0xff, 0xff, 0x00, 0x01, 0x01, 0x00, 0xff, 0x02, 0x03, 0x03, 0x01, 0x02, 0x01, 0x02,
  0xfe, 0xfe, 0x00, 0xfe, 0xff, 0xff, 0xfe, 0xff, 0x00, 0x01, 0x01, 0x02, 0x00, 0x01, 0x01, 0x00,
  0xfe, 0x00, 0xff, 0xff, 0x00, 0x00, 0x02, 0x00, 0x03, 0x04, 0x02, 0x02, 0x00, 0x00, 0x00, 0xff,
  0x00, 0x00, 0x00, 0x01, 0x01, 0x02, 0x01, 0x00, 0xff, 0x01, 0x00, 0x01, 0xff, 0xff, 0xfe, 0xfe,
  0xfe, 0xfe, 0xfe, 0x01, 0xfe, 0xfe, 0xff, 0xfe, 0xff, 0xfe, 0x02, 0x03, 0x02, 0x02, 0x00, 0xfe,
  0xfe, 0xfd, 0xfe, 0xff, 0x00, 0xff, 0x01, 0x01, 0x01, 0x01, 0x01, 0x00, 0xfd, 0x00, 0xfe, 0x00,
  0x02, 0x02, 0x04, 0x01, 0x02, 0xfd, 0xf7, 0xf3, 0xf4, 0xfd, 0x1e, 0x7f, 0xff, 0xff, 0xfe, 0xfe,
  0x01, 0x01, 0xff, 0x01, 0x00, 0x01, 0x04, 0x03, 0x02, 0x02, 0xff, 0x00, 0x03, 0xff, 0x00, 0xfe,
  0x01, 0xff, 0x01, 0x00, 0x01, 0xfe, 0xff, 0xff, 0x01, 0xff, 0xff, 0x02, 0x02, 0x01, 0x03, 0x00,
  0xff, 0x02, 0x02, 0xfd, 0xff, 0x00, 0x01, 0x00, 0x00, 0x00, 0x02, 0x00, 0x00, 0xff, 0x00, 0xfe,
  0x01, 0xff, 0x00, 0x01, 0x00, 0x00, 0x01, 0x01, 0x01, 0x01, 0x02, 0xfe, 0xfe, 0x01, 0x00, 0x01,
  0x02, 0x01, 0x00, 0x03, 0xff, 0x02, 0x00, 0xfe, 0xff, 0xff, 0xfe, 0x01, 0x02, 0xfe, 0x00, 0xff,
  0xfd, 0x01, 0x01, 0x02, 0x03, 0x03, 0x00, 0xfe, 0xff, 0x00, 0xff, 0xfd, 0xfe, 0xfe, 0xfe, 0x01,
  0x01, 0x01, 0x01, 0x01, 0x00, 0x03, 0xff, 0xff, 0xff, 0x00, 0x00, 0x00, 0x03, 0xff, 0xff, 0x02,
  0x03, 0x02, 0x02, 0xfe, 0xfe, 0x01, 0x01, 0xff, 0x00, 0xff, 0x00, 0xfe, 0x01, 0xff, 0xff, 0x01,
  0x00, 0xff, 0x01, 0xfe, 0xff, 0xfe, 0x02, 0x01, 0x03, 0x01, 0x01, 0xfe, 0x01, 0x01, 0x01, 0x01,
  0x00, 0x02, 0xfe, 0xff, 0xfe, 0xfe, 0x01, 0x00, 0x00, 0x01, 0xff, 0xfe, 0x01, 0xff, 0x00, 0xff,
  0x03, 0xfe, 0xfe, 0x00, 0xff, 0x00, 0xfe, 0xfe, 0x00, 0x02, 0x00, 0x00, 0xff, 0x01, 0x01, 0xff,
  0x00, 0x00, 0xfd, 0x01, 0xff, 0xff, 0xff, 0xfd, 0xff, 0xff, 0xfd, 0x02, 0x01, 0xfe, 0x00, 0xfd,
  0xff, 0xfd, 0x00, 0x00, 0xfe, 0xff, 0xfd, 0x00, 0xff, 0x01, 0x00, 0xff, 0x03, 0xff, 0x02, 0x00,
  0x02, 0x00, 0x00, 0x02, 0xfe, 0xff, 0x01, 0x01, 0x01, 0x00, 0xff, 0x03, 0x02, 0x01, 0x00, 0x02,
  0xfd, 0xfd, 0xfe, 0xff, 0xfe, 0xfd, 0xff, 0xff, 0x00, 0xfe, 0x01, 0x00, 0xfe, 0x00, 0xff, 0x01,
  0x00, 0xfe, 0xfe, 0x01, 0xff, 0x01, 0xfe, 0x02, 0x01, 0x01, 0x00, 0xff, 0x01, 0x00, 0x00, 0x02,
  0x01, 0x03, 0xff, 0x02, 0x00, 0x00, 0x00, 0x00, 0x01, 0xff, 0x01, 0x02, 0x02, 0x01, 0x01, 0x00,
  0x00, 0x03, 0xff, 0xff, 0x00, 0x01, 0x00, 0x00, 0x03, 0x03, 0xff, 0xff, 0x00, 0x00, 0x02, 0x00,
  0x01, 0x01, 0xff, 0x02, 0xff, 0xff, 0x00, 0xff, 0x01, 0x01, 0x02, 0x01, 0xff, 0xff, 0x01, 0xfe,
  0x02, 0xfe, 0xff, 0x02, 0xff, 0x02, 0x00, 0x02, 0x02, 0x03, 0xff, 0xff, 0x00, 0xff, 0xfd, 0xfb,
  0xfe, 0x00, 0xfe, 0xff, 0x02, 0xff, 0x04, 0x00, 0x03, 0xff, 0xff, 0xff, 0x01, 0x01, 0xff, 0xfe,
  0xfd, 0xff, 0xfe, 0x02, 0x00, 0x04, 0x01, 0x03, 0x02, 0x02, 0x00, 0xff, 0x02, 0x02, 0xff, 0xfe,
  0xff, 0xff, 0x00, 0x00, 0x00, 0x00, 0xfe, 0x00, 0x02, 0xff, 0x02, 0x01, 0x00, 0xff, 0x01, 0x00,
  0x02, 0x02, 0x01, 0x02, 0xff, 0xfe, 0x01, 0xfe, 0xff, 0x00, 0xff, 0x01, 0xff, 0x00, 0x01, 0x02,
  0xfe, 0x02, 0x01, 0x02, 0x01, 0x03, 0xff, 0x02, 0x01, 0x02, 0x02, 0xfd, 0xfe, 0xfd, 0x02, 0x02,
  0x00, 0xfe, 0x00, 0x00, 0xff, 0xff, 0x01, 0xff, 0x01, 0xff, 0x01, 0x02, 0xff, 0xff, 0xfd, 0xfd,
  0xff, 0xff, 0xfe, 0xfe, 0x02, 0x00, 0xff, 0x02, 0x01, 0x00, 0x01, 0x03, 0x02, 0x01, 0xff, 0xff,
  0x00, 0x01, 0xff, 0xff, 0x03, 0x02, 0x02, 0x01, 0xff, 0xfe, 0xff, 0x00, 0x02, 0xfe, 0x02, 0x00,
  0x02, 0xfe, 0xfd, 0xff, 0x01, 0xfc, 0xfd, 0xfe, 0xff, 0x01, 0xfd, 0xff, 0x00, 0x00, 0xff, 0x01,
  0x00, 0x03, 0x00, 0x00, 0x00, 0x00, 0xfd, 0xfd, 0xfe, 0x01, 0x03, 0x01, 0x03, 0x01, 0xff, 0xff,
  0x00, 0x01, 0x00, 0x00, 0xff, 0xff, 0x00, 0x00, 0xfe, 0xfe, 0xfb, 0xfc, 0xfe, 0xfe, 0xfc, 0xfe,
  0x01, 0x03, 0x01, 0xff, 0xf8, 0xf5, 0xef, 0xf0, 0xfb, 0x1e, 0x7f, 0xfd, 0x00, 0x00, 0xff, 0x01,
  0x01, 0x00, 0x03, 0x00, 0x02, 0xfe, 0xfe, 0xfe, 0xff, 0xfe, 0x00, 0x01, 0x00, 0xfe, 0x01, 0xff,
  0x01, 0x00, 0xfe, 0x00, 0x02, 0x01, 0x02, 0x00, 0x00, 0x00, 0x02, 0x01, 0x00, 0x01, 0xff, 0x02,
  0x01, 0x00, 0x00, 0xff, 0x00, 0x01, 0x01, 0xfe, 0xff, 0xff, 0x01, 0x01, 0xff, 0x00, 0x00, 0x01,
  0x01, 0x01, 0x02, 0x01, 0xff, 0x00, 0xfd, 0xff, 0x00, 0xff, 0xfe, 0xfe, 0x01, 0x01, 0x00, 0xfe,
  0x01, 0xfe, 0x01, 0xff, 0x00, 0x01, 0xff, 0x02, 0x00, 0xff, 0xff, 0x01, 0x01, 0x01, 0x02, 0xff,
  0x02, 0x01, 0x03, 0x02, 0xff, 0xfd, 0xfe, 0x01, 0xff, 0x01, 0x00, 0x00, 0x03, 0x02, 0x01, 0x00,
  0xfe, 0xff, 0xfe, 0xfd, 0xfe, 0xfe, 0xfd, 0x00, 0x00, 0x02, 0x00, 0x01, 0x02, 0x02, 0x00, 0x00,
  0xff, 0xff, 0xff, 0x00, 0x01, 0xff, 0x00, 0x01, 0xff, 0x01, 0x00, 0xfe, 0xff, 0x00, 0x03, 0x02,
  0x02, 0x02, 0x02, 0x01, 0xff, 0xff, 0xfd, 0x00, 0x01, 0x01, 0xff, 0x02, 0x01, 0x03, 0xff, 0x01,
  0x01, 0x02, 0x00, 0x00, 0x01, 0xff, 0x01, 0xff, 0xff, 0x00, 0xff, 0x00, 0x00, 0x01, 0x02, 0xff,
  0x02, 0xfe, 0x01, 0x00, 0x02, 0x00, 0x02, 0x00, 0x01, 0x01, 0xff, 0x01, 0x00, 0xff, 0x00, 0xff,
  0x00, 0xff, 0xff, 0x02, 0x02, 0x02, 0x01, 0xff, 0x00, 0xff, 0x01, 0x01, 0x02, 0xff, 0x03, 0xff,
  0x01, 0x01, 0x01, 0xfd, 0x01, 0xff, 0xfe, 0x01, 0xff, 0x00, 0x01, 0x01, 0xff, 0xfe, 0x01, 0xff,
  0xff, 0xff, 0xfd, 0x02, 0xff, 0x01, 0x02, 0x00, 0x00, 0x00, 0x00, 0x00, 0x01, 0x00, 0x00, 0x01,
  0x01, 0x01, 0xfe, 0x00, 0xfe, 0x01, 0xff, 0xff, 0x01, 0xff, 0xff, 0x01, 0xff, 0x00, 0x00, 0xff,
  0xff, 0xfe, 0x00, 0x02, 0x00, 0x00, 0x01, 0x01, 0x01, 0x02, 0x00, 0x00, 0xff, 0x00, 0xfd, 0xff,
  0xfe, 0x00, 0xfe, 0x01, 0x00, 0x02, 0x02, 0x02, 0xff, 0xfe, 0x02, 0x01, 0x00, 0xff, 0xfe, 0xff,
  0xff, 0x00, 0x00, 0x00, 0xff, 0x01, 0x01, 0x00, 0x03, 0x02, 0x04, 0x01, 0x01, 0x01, 0x02, 0x01,
  0x01, 0x02, 0xff, 0x01, 0x01, 0x01, 0x02, 0xff, 0x02, 0x00, 0xff, 0xff, 0xff, 0x01, 0xff, 0xfd,
  0x01, 0xfe, 0x01, 0x01, 0x03, 0xff, 0x02, 0x02, 0x01, 0xff, 0xff, 0x01, 0xff, 0x02, 0x02, 0x00,
  0xff, 0x00, 0x01, 0x01, 0x02, 0x00, 0xff, 0x02, 0xfe, 0xfe, 0xff, 0x01, 0xff, 0x01, 0x01, 0xfe,
  0x01, 0x00, 0x00, 0x01, 0x00, 0x02, 0xff, 0x01, 0x00, 0x01, 0xfd, 0xff, 0xfe, 0x01, 0xff, 0x00,
  0x01, 0x01, 0x01, 0xfe, 0x01, 0xff, 0x00, 0x02, 0x02, 0xff, 0x00, 0x01, 0x00, 0x00, 0x02, 0x02,
  0x03, 0x00, 0xff, 0x01, 0x00, 0x00, 0x00, 0x02, 0x01, 0x01, 0x00, 0xff, 0xff, 0x00, 0x00, 0x01,
  0x00, 0x01, 0x02, 0xfe, 0xff, 0x00, 0x00, 0x01, 0xff, 0x00, 0xff, 0x00, 0x02, 0x00, 0x02, 0x01,
  0x00, 0xff, 0x00, 0x00, 0x02, 0xff, 0xff, 0xff, 0x00, 0x00, 0x00, 0x00, 0x01, 0x01, 0x01, 0x01,
  0x01, 0x01, 0x00, 0x02, 0x02, 0x00, 0x00, 0x01, 0x01, 0x03, 0x02, 0x01, 0x00, 0x00, 0x03, 0xff,
  0xff, 0xfd, 0x00, 0xfe, 0xff, 0xfd, 0x00, 0x00, 0x00, 0x01, 0x00, 0xfd, 0xfe, 0xfd, 0x00, 0x00,
  0x02, 0x01, 0x02, 0x03, 0xff, 0xff, 0xff, 0x00, 0x00, 0xfd, 0xfe, 0xff, 0x00, 0x01, 0xff, 0x00,
  0x00, 0x00, 0x02, 0x02, 0x02, 0x03, 0x03, 0x01, 0x02, 0x00, 0xff, 0x01, 0xfe, 0xfd, 0x00, 0x00,
  0xff, 0xff, 0x01, 0xfe, 0x00, 0x00, 0xfd, 0x00, 0xfe, 0xff, 0xfe, 0xff, 0x02, 0x00, 0xff, 0xfb,
  0xfa, 0xfe, 0x00, 0x07, 0x0e, 0x11, 0x14, 0x06, 0xe6, 0x81, 0xfd, 0xfe, 0xfd, 0xf9, 0xfb, 0x01,
  0xff, 0xff, 0x05, 0x03, 0x02, 0x02, 0xff, 0x00, 0x04, 0xfc, 0xfe, 0x01, 0xfc, 0x01, 0x01, 0xfc,
  0xfd, 0xf9, 0xf9, 0xfe, 0xfd, 0xfd, 0xfa, 0xfb, 0xfa, 0xfd, 0x01, 0x01, 0x03, 0x00, 0x02, 0xfd,
  0xff, 0x02, 0x03, 0x05, 0x04, 0x05, 0x02, 0x00, 0xfe, 0xfe, 0xfc, 0xf5, 0xfc, 0xf6, 0xf7, 0xf9,
  0xf9, 0x01, 0x00, 0x00, 0x01, 0xff, 0xfd, 0xfe, 0xfd, 0xfd, 0xfe, 0x02, 0x02, 0x01, 0xff, 0x06,
  0x05, 0x04, 0x03, 0x01, 0x01, 0x03, 0x01, 0x05, 0x00, 0x01, 0x03, 0x00, 0x04, 0xfd, 0x04, 0xff,
  0xff, 0x07, 0x05, 0x05, 0x01, 0x02, 0x00, 0x01, 0x04, 0x03, 0x01, 0x02, 0x06, 0x03, 0x02, 0x04,
  0x06, 0x01, 0x04, 0x00, 0x06, 0x04, 0x00, 0x01, 0x01, 0x01, 0x02, 0x05, 0xfe, 0x01, 0xfb, 0x01,
  0xfa, 0xfe, 0xfe, 0xfe, 0x04, 0x04, 0xff, 0x05, 0x00, 0x00, 0x03, 0x05, 0x04, 0x00, 0x01, 0x00,
  0xfd, 0x02, 0x00, 0xfc, 0xff, 0xff, 0x00, 0x01, 0xfd, 0x02, 0xff, 0xfe, 0x02, 0x00, 0x01, 0x02,
  0x02, 0x01, 0x01, 0x03, 0x04, 0x05, 0x04, 0x01, 0x00, 0x03, 0xfe, 0x01, 0x03, 0xfc, 0xfc, 0x00,
  0xfb, 0xfd, 0x00, 0xfe, 0xff, 0xfe, 0xfd, 0xfc, 0x02, 0xff, 0x02, 0xfb, 0x00, 0xfe, 0xfc, 0xfd,
  0xfc, 0xfe, 0xfb, 0xfb, 0xfe, 0x00, 0xfd, 0xfb, 0xff, 0x00, 0x02, 0x01, 0xff, 0xfc, 0xfb, 0x02,
  0xff, 0x00, 0x03, 0x06, 0x06, 0x01, 0x02, 0x02, 0xfe, 0x01, 0x03, 0xff, 0x03, 0x02, 0x03, 0x01,
  0x02, 0x02, 0x01, 0x00, 0xfb, 0xff, 0x02, 0xfe, 0xff, 0xfe, 0xfe, 0x00, 0x00, 0x01, 0x04, 0xfe,
  0x01, 0xfe, 0x04, 0xfe, 0x04, 0x03, 0x03, 0x01, 0x00, 0xff, 0xfb, 0x01, 0xfe, 0x01, 0x02, 0x06,
  0x02, 0x03, 0x04, 0x04, 0x04, 0x01, 0xfe, 0x02, 0x03, 0xff, 0x00, 0x02, 0x00, 0x00, 0x02, 0x02,
  0xfa, 0xff, 0x01, 0x00, 0xff, 0xfc, 0x02, 0x00, 0xff, 0x00, 0xfe, 0xff, 0x00, 0x02, 0xff, 0xff,
  0x00, 0xff, 0xfe, 0x00, 0x02, 0x02, 0x01, 0x03, 0x05, 0x00, 0xff, 0x02, 0x03, 0x03, 0x05, 0x00,
  0x04, 0x03, 0x01, 0x01, 0x03, 0x05, 0x06, 0x00, 0xfc, 0xff, 0xfc, 0xf9, 0xfe, 0x00, 0xfc, 0x00,
  0xfe, 0xff, 0x00, 0x00, 0xfe, 0x00, 0xfe, 0x05, 0x04, 0x01, 0x02, 0x02, 0xfe, 0x03, 0xff, 0x02,
  0x00, 0xfe, 0xfd, 0xfe, 0xfe, 0x00, 0x01, 0x00, 0x03, 0x01, 0x00, 0x06, 0x04, 0x04, 0x04, 0x02,
  0xfe, 0xfd, 0x01, 0x02, 0xfe, 0xff, 0xfe, 0x04, 0x05, 0x00, 0x03, 0x00, 0xff, 0x01, 0x02, 0xfa,
  0x02, 0xff, 0x01, 0xfe, 0x01, 0x01, 0x01, 0x01, 0xff, 0x00, 0xff, 0x00, 0x00, 0x01, 0x05, 0x04,
  0x01, 0x05, 0xfd, 0xff, 0xfe, 0xfd, 0x00, 0xfe, 0xfa, 0xfb, 0xfe, 0xfc, 0xf6, 0xf9, 0xf8, 0xf7,
  0xf8, 0xf7, 0xfb, 0xfe, 0xfa, 0xfd, 0xff, 0xff, 0x01, 0xfd, 0xf8, 0xfd, 0xfc, 0xfe, 0x00, 0xfc,
  0xfd, 0x02, 0x03, 0xff, 0x03, 0xfe, 0x02, 0xff, 0x00, 0xfb, 0xfe, 0xf9, 0xff, 0xfb, 0xfd, 0xfe,
  0xfc, 0x00, 0x01, 0x01, 0x03, 0x02, 0x03, 0x03, 0x04, 0x03, 0xfe, 0xfe, 0x00, 0x01, 0xff, 0x03,
  0x01, 0xfe, 0xfe, 0x02, 0x06, 0x00, 0x03, 0x02, 0xfd, 0x01, 0xfe, 0xfd, 0xff, 0xfa, 0xff, 0xfa,
  0xfb, 0xfc, 0xfa, 0xf8, 0xf8, 0xf9, 0xfd, 0x01, 0x02, 0x00, 0x02, 0x05, 0x03, 0x07, 0x03, 0x05,
  0x02, 0x07, 0xff, 0x04, 0x03, 0xfb, 0xfd, 0xfe, 0xfe, 0xfe, 0x00, 0xfc, 0xfd, 0xfc, 0xf7, 0xf9,
  0xfd, 0xfd, 0xfd, 0xfe, 0x04, 0x00, 0xff, 0xff, 0x03, 0x01, 0xff, 0xfc, 0xfb, 0x02, 0x03, 0x03,
  0x06, 0x08, 0x06, 0x03, 0x01, 0xfe, 0x08, 0x29, 0x7f, 0x00, 0x00, 0xfe, 0xff, 0xff, 0x01, 0x01,
  0x03, 0x00, 0x01, 0xff, 0x01, 0x02, 0x00, 0x01, 0x01, 0x01, 0xff, 0x00, 0x02, 0x02, 0x00, 0x03,
  0x02, 0xff, 0x00, 0x03, 0x00, 0x01, 0x02, 0x02, 0x01, 0xff, 0x02, 0xff, 0x00, 0x00, 0x01, 0x00,
  0x00, 0xff, 0x00, 0x02, 0xff, 0xff, 0x00, 0x00, 0x00, 0x01, 0x03, 0x03, 0xff, 0x01, 0x03, 0x00,
  0xff, 0xff, 0xff, 0x01, 0x00, 0x01, 0xff, 0x01, 0x02, 0x01, 0x00, 0x01, 0x02, 0x00, 0x03, 0x03,
  0x00, 0x03, 0x01, 0x02, 0x00, 0xff, 0x01, 0x01, 0x02, 0x02, 0xff, 0xff, 0x02, 0x02, 0x02, 0xfe,
  0x01, 0xff, 0xfd, 0x00, 0xff, 0x02, 0x00, 0x02, 0xfe, 0x01, 0xff, 0x01, 0x01, 0x00, 0xfe, 0xfe,
  0xff, 0x01, 0x00, 0x03, 0x02, 0x01, 0x03, 0xff, 0x00, 0x01, 0x00, 0x02, 0x02, 0xfe, 0xff, 0xfd,
  0x00, 0x00, 0xfe, 0xff, 0x01, 0xff, 0x01, 0x00, 0xfe, 0x00, 0x00, 0xfd, 0x00, 0x00, 0x00, 0xff,
  0x02, 0xff, 0x00, 0x02, 0xff, 0x00, 0x03, 0xff, 0xff, 0x01, 0x00, 0x00, 0xff, 0x02, 0x02, 0x03,
  0xff, 0x00, 0x00, 0x00, 0x01, 0x00, 0x01, 0x02, 0x02, 0x02, 0x00, 0x03, 0xff, 0x01, 0x01, 0x03,
  0x02, 0x03, 0x02, 0x00, 0x01, 0xfe, 0xff, 0xfe, 0x01, 0x00, 0x00, 0x01, 0xff, 0xfd, 0xfe, 0xfe,
  0xfe, 0xff, 0xff, 0xff, 0x01, 0x01, 0xff, 0x01, 0xfe, 0x00, 0x00, 0x01, 0xff, 0x01, 0xff, 0x01,
  0x03, 0x00, 0x02, 0x01, 0x00, 0x00, 0x03, 0x02, 0x00, 0x00, 0xff, 0x00, 0xfd, 0xff, 0xff, 0x00,
  0x00, 0xff, 0x00, 0xfe, 0x01, 0x00, 0x02, 0xff, 0x01, 0x00, 0xfe, 0x00, 0x00, 0xfe, 0x01, 0x02,
  0xff, 0x00, 0x00, 0x02, 0x00, 0x00, 0x00, 0x02, 0x02, 0x02, 0x02, 0x00, 0xff, 0xff, 0x01, 0x01,
  0x01, 0xfe, 0x00, 0xff, 0xff, 0x01, 0xfe, 0xfe, 0x01, 0x02, 0x00, 0x01, 0x03, 0x04, 0x03, 0x01,
  0x00, 0x00, 0x02, 0x00, 0xff, 0xff, 0x03, 0x01, 0x00, 0x01, 0x01, 0x03, 0x01, 0x02, 0x02, 0xff,
  0x02, 0x01, 0x00, 0x01, 0x00, 0x00, 0x02, 0x00, 0x01, 0x00, 0xff, 0x00, 0x02, 0x00, 0xff, 0xff,
  0x00, 0x00, 0xfe, 0x00, 0x03, 0xff, 0xff, 0x00, 0x01, 0x00, 0x00, 0x01, 0x01, 0x02, 0xff, 0x01,
  0x03, 0x00, 0x02, 0x01, 0x01, 0xff, 0x00, 0xfd, 0xfc, 0xfe, 0x00, 0x00, 0x01, 0x01, 0xff, 0x01,
  0x02, 0x00, 0x02, 0x03, 0x02, 0x00, 0x01, 0x01, 0x00, 0x00, 0x03, 0x01, 0xff, 0x00, 0xff, 0xff,
  0x02, 0xfe, 0x01, 0xff, 0xff, 0xff, 0x00, 0x00, 0x00, 0x01, 0x01, 0x00, 0x00, 0xfe, 0x00, 0xfe,
  0xff, 0x00, 0xfe, 0xfe, 0x01, 0x01, 0x02, 0x04, 0x00, 0x00, 0x01, 0x01, 0x03, 0x01, 0xff, 0xff,
  0x00, 0x00, 0x01, 0xfe, 0x01, 0xff, 0x01, 0xff, 0x00, 0xfe, 0xff, 0x01, 0xfe, 0x00, 0x01, 0x01,
  0x01, 0xfd, 0xff, 0x00, 0x02, 0x00, 0x01, 0x03, 0x02, 0x01, 0x00, 0x00, 0x01, 0x01, 0x01, 0x01,
  0x03, 0xff, 0x01, 0xff, 0xff, 0xff, 0xff, 0xfe, 0xff, 0x00, 0xfd, 0xfc, 0xff, 0xfd, 0xfe, 0xfe,
  0xfe, 0xff, 0x00, 0x00, 0x00, 0x01, 0xfe, 0x02, 0xff, 0xff, 0x01, 0x00, 0x01, 0xff, 0x03, 0x00,
  0x02, 0x03, 0x01, 0x01, 0x02, 0x03, 0x00, 0x00, 0xfe, 0x00, 0xfe, 0xfd, 0xff, 0x01, 0xff, 0x01,
  0x00, 0x00, 0x00, 0x00, 0x00, 0x00, 0x03, 0x02, 0x04, 0x04, 0x03, 0x01, 0x03, 0xff, 0x01, 0xfd,
  0xff, 0x00, 0xff, 0xff, 0xfd, 0x00, 0x00, 0xfd, 0xfe, 0x00, 0x00, 0xfe, 0x01, 0x02, 0x00, 0x01,
  0x02, 0x02, 0x02, 0x01, 0x01, 0xfe, 0x01, 0xfe, 0x00, 0x01, 0x00, 0xfe, 0xfb, 0xfa, 0xfa, 0xfc,
  0xff, 0x05, 0x0a, 0x0d, 0x0e, 0x04, 0xe4, 0x81, 0x02, 0x00, 0x01, 0x02, 0x01, 0x01, 0x02, 0x00,
  0x00, 0x01, 0x01, 0xff, 0xfe, 0x01, 0xff, 0xfe, 0x00, 0x00, 0x01, 0xff, 0x00, 0xff, 0x01, 0xff,
  0xff, 0x00, 0x00, 0x01, 0xfe, 0xff, 0xfe, 0x00, 0x01, 0xfe, 0xff, 0x01, 0x01, 0x01, 0x00, 0x00,
  0xff, 0xff, 0xfe, 0xfe, 0xff, 0x01, 0x00, 0xfe, 0x00, 0x00, 0xff, 0xff, 0x00, 0xff, 0x01, 0x00,
  0x01, 0x00, 0x00, 0x02, 0x02, 0x01, 0x00, 0x00, 0x01, 0xfe, 0x00, 0x00, 0xfe, 0x00, 0x00, 0xff,
  0x00, 0xfe, 0x00, 0xff, 0xff, 0x00, 0x02, 0x01, 0xff, 0x00, 0x00, 0x00, 0xff, 0xff, 0x01, 0x02,
  0x00, 0x00, 0x00, 0x03, 0x01, 0x00, 0x01, 0xff, 0x00, 0x01, 0x00, 0x00, 0x00, 0x01, 0xff, 0xff,
  0x01, 0x00, 0x01, 0x01, 0xff, 0x01, 0x01, 0x01, 0xff, 0xff, 0xfe, 0x01, 0xfe, 0x00, 0xff, 0x01,
  0x00, 0x01, 0x00, 0xff, 0xff, 0xff, 0xff, 0x00, 0x01, 0x00, 0x00, 0x01, 0x01, 0xfe, 0x01, 0xff,
  0xff, 0xfe, 0xff, 0xff, 0xff, 0x01, 0x00, 0xff, 0xff, 0x01, 0x00, 0x00, 0x00, 0x00, 0xfe, 0x00,
  0x00, 0x00, 0x03, 0x00, 0x02, 0x00, 0xff, 0x01, 0x00, 0xff, 0xfe, 0xff, 0x01, 0x00, 0xff, 0x00,
  0xfd, 0x01, 0x00, 0xff, 0x01, 0xff, 0xff, 0x01, 0xff, 0x01, 0x00, 0x00, 0x03, 0x00, 0x02, 0x02,
  0xff, 0xff, 0x01, 0x01, 0xfe, 0xff, 0xff, 0x02, 0xff, 0x00, 0xff, 0x00, 0x00, 0xfe, 0x00, 0xfe,
  0x01, 0x00, 0xff, 0xff, 0x00, 0x00, 0x00, 0x02, 0xff, 0x01, 0xff, 0xff, 0x00, 0x00, 0x01, 0x01,
  0x02, 0xff, 0xff, 0x00, 0xff, 0xfe, 0x01, 0x01, 0xfe, 0x01, 0x01, 0x01, 0xff, 0x01, 0x01, 0x01,
  0xff, 0xff, 0x01, 0x00, 0x01, 0x00, 0x00, 0xff, 0x01, 0x01, 0xff, 0x01, 0x00, 0x00, 0x00, 0x01,
  0x01, 0x01, 0x00, 0x00, 0x00, 0x01, 0xff, 0xfe, 0xfe, 0x00, 0x02, 0x03, 0xff, 0x01, 0x01, 0x00,
  0x01, 0x00, 0xff, 0x01, 0x00, 0x00, 0xff, 0x00, 0xfe, 0x00, 0x00, 0xff, 0x00, 0xff, 0x00, 0xff,
  0xfe, 0xff, 0x01, 0x01, 0x02, 0x01, 0x01, 0x00, 0x00, 0xff, 0x00, 0xff, 0x00, 0x01, 0xff, 0x01,
  0x01, 0x01, 0xfe, 0x01, 0x00, 0x00, 0x01, 0xff, 0xff, 0x00, 0x01, 0x01, 0xfe, 0x00, 0xfe, 0x00,
  0x01, 0xfe, 0x01, 0x01, 0x00, 0x01, 0xff, 0x00, 0xfe, 0xfe, 0xff, 0x00, 0xff, 0x01, 0xff, 0x02,
  0x02, 0x00, 0xff, 0x01, 0x00, 0x01, 0x02, 0x00, 0x00, 0x01, 0xff, 0xfe, 0xff, 0xff, 0xff, 0x01,
  0xff, 0xfe, 0x01, 0x00, 0x00, 0x01, 0x00, 0xff, 0x00, 0x00, 0xff, 0xfe, 0x00, 0x01, 0x02, 0x00,
  0x02, 0x01, 0x00, 0xff, 0xff, 0x00, 0xfe, 0x00, 0x00, 0x00, 0xff, 0x01, 0x01, 0xff, 0x01, 0x00,
  0x00, 0xfe, 0x01, 0xff, 0xff, 0xff, 0xff, 0x00, 0x00, 0x01, 0x01, 0x00, 0x01, 0x01, 0xfe, 0xff,
  0xff, 0xfe, 0xff, 0x01, 0x01, 0x01, 0xff, 0x00, 0xff, 0xff, 0xff, 0x01, 0x00, 0x01, 0x00, 0x02,
  0x00, 0x01, 0x02, 0x03, 0x00, 0x00, 0x02, 0x00, 0x01, 0xfe, 0x00, 0xfe, 0xfe, 0xff, 0x02, 0x01,
  0x01, 0xff, 0xff, 0x00, 0x00, 0x00, 0xff, 0x00, 0x00, 0x00, 0x02, 0x00, 0xfe, 0x01, 0xfe, 0xff,
  0x00, 0xfe, 0xff, 0x01, 0x00, 0x01, 0x00, 0x00, 0xff, 0xfe, 0x00, 0x00, 0xfc, 0xff, 0x00, 0x00,
  0x00, 0xff, 0xff, 0x00, 0x00, 0x02, 0x01, 0x01, 0x01, 0xfe, 0xff, 0x00, 0xfe, 0x01, 0xff, 0x01,
  0xff, 0xfe, 0x00, 0xfd, 0x01, 0x01, 0x01, 0x01, 0xff, 0x00, 0xff, 0xfe, 0x00, 0xff, 0xfe, 0xff,
  0x00, 0x02, 0x02, 0x00, 0xff, 0x00, 0xff, 0xff, 0xff, 0xfd, 0xfe, 0x02, 0x03, 0x04, 0x05, 0x00,
  0xfa, 0xf8, 0xf3, 0xf4, 0x00, 0x1f, 0x7f, 0xfe, 0xfd, 0x00, 0x00, 0x01, 0x00, 0x02, 0xff, 0x00,
  0x00, 0x02, 0x01, 0x01, 0xff, 0xfe, 0xfd, 0x00, 0xfe, 0x00, 0xff, 0xff, 0xfd, 0xfe, 0xfe, 0xfd,
  0xff, 0xff, 0x00, 0x03, 0x00, 0x03, 0x03, 0x00, 0x00, 0xff, 0xfc, 0xfe, 0xfc, 0xff, 0xff, 0xfe,
  0x00, 0xff, 0x00, 0x00, 0x02, 0x02, 0x04, 0x04, 0xff, 0x00, 0xfd, 0x00, 0x00, 0xfd, 0xff, 0x00,
  0x00, 0x01, 0xfd, 0x00, 0x00, 0xff, 0x01, 0xff, 0x00, 0xfe, 0x02, 0x02, 0x01, 0x01, 0x00, 0x05,
  0x04, 0x01, 0x02, 0xff, 0xff, 0x00, 0x00, 0xfe, 0xfe, 0x00, 0x01, 0xfd, 0x02, 0x01, 0x02, 0x00,
  0x00, 0xff, 0xff, 0x02, 0x00, 0xfe, 0xfe, 0xff, 0x01, 0xff, 0x01, 0x00, 0xff, 0xff, 0x03, 0x01,
  0x01, 0x01, 0x01, 0x00, 0x00, 0x03, 0x03, 0x01, 0x03, 0x03, 0x05, 0x02, 0x01, 0x03, 0x00, 0x00,
  0x02, 0xff, 0xff, 0x02, 0x00, 0x01, 0xff, 0x00, 0xff, 0x00, 0xfe, 0xff, 0xfe, 0x00, 0x01, 0xff,
  0x03, 0x00, 0x02, 0x01, 0x01, 0xff, 0x01, 0x02, 0x02, 0xff, 0xfd, 0xfe, 0xfc, 0xfe, 0x00, 0x00,
  0x00, 0x02, 0xfe, 0x00, 0xfe, 0xfe, 0xfe, 0x00, 0xff, 0x01, 0xfe, 0x02, 0x00, 0x00, 0x00, 0x01,
  0x02, 0xfe, 0x00, 0x00, 0xfc, 0xfc, 0xfe, 0xfe, 0xfc, 0x00, 0x00, 0xfd, 0xfd, 0xfe, 0x02, 0x00,
  0x03, 0x02, 0x00, 0x02, 0x02, 0xfd, 0xfe, 0xff, 0x01, 0xff, 0x02, 0x01, 0xff, 0x01, 0xff, 0xff,
  0x04, 0x04, 0x01, 0x05, 0x03, 0x04, 0x01, 0x00, 0xff, 0xff, 0xfd, 0xfe, 0xfd, 0xfe, 0x00, 0x03,
  0x01, 0xff, 0x04, 0x03, 0xff, 0xff, 0x01, 0x03, 0x01, 0x02, 0xfe, 0x00, 0xfe, 0x00, 0xff, 0x00,
  0x00, 0xfc, 0xff, 0xfd, 0xff, 0x03, 0x01, 0x04, 0x05, 0x04, 0x01, 0xff, 0x01, 0x01, 0x00, 0xfe,
  0xff, 0xfd, 0xff, 0x00, 0xfc, 0x01, 0x01, 0x01, 0x00, 0xfe, 0x01, 0xff, 0x01, 0x00, 0xff, 0x00,
  0x01, 0xff, 0x02, 0x01, 0x01, 0x02, 0x03, 0x02, 0x00, 0x02, 0xff, 0xfe, 0x00, 0x00, 0x02, 0x00,
  0xff, 0x00, 0xfe, 0x00, 0xfd, 0xfe, 0x00, 0xfd, 0xfd, 0xff, 0xfe, 0x00, 0x00, 0x02, 0x00, 0x00,
  0x03, 0x03, 0x01, 0xff, 0xfe, 0x02, 0x01, 0x01, 0xfb, 0xfb, 0xfe, 0xfc, 0x00, 0x01, 0x00, 0x01,
  0x01, 0x04, 0x02, 0x00, 0x00, 0x02, 0x01, 0xff, 0x00, 0x02, 0x00, 0x04, 0x01, 0x04, 0x01, 0x02,
  0xff, 0x01, 0xff, 0xfd, 0xfb, 0xfe, 0x00, 0x00, 0x01, 0x00, 0xff, 0xff, 0x00, 0x02, 0x00, 0x00,
  0x02, 0x01, 0x00, 0xfe, 0xfd, 0xfe, 0xfd, 0x00, 0xfe, 0x02, 0xff, 0xfe, 0xfe, 0x00, 0x00, 0xfd,
  0x01, 0xff, 0x00, 0x00, 0x03, 0x03, 0x01, 0x02, 0x02, 0x02, 0x03, 0x03, 0xff, 0xff, 0x00, 0xff,
  0xfb, 0xfb, 0xfa, 0xfc, 0xfd, 0x00, 0xfd, 0xff, 0x01, 0x03, 0x00, 0x01, 0x00, 0x00, 0x00, 0x01,
  0x03, 0x01, 0x01, 0x02, 0x02, 0x03, 0x02, 0x04, 0x04, 0x02, 0xff, 0xfe, 0xfe, 0x00, 0x00, 0xfd,
  0xfd, 0xff, 0xfc, 0xfd, 0xfc, 0xfc, 0xfe, 0x01, 0x01, 0x02, 0x04, 0x02, 0x00, 0xff, 0x01, 0xff,
  0xff, 0x02, 0x00, 0x03, 0x03, 0x05, 0x01, 0x01, 0xff, 0xfe, 0x02, 0x00, 0x00, 0xff, 0x02, 0x00,
  0x02, 0x01, 0x03, 0x01, 0x03, 0x01, 0x02, 0x03, 0x02, 0x00, 0xff, 0x03, 0x00, 0x01, 0xff, 0x03,
  0x04, 0x02, 0x04, 0x00, 0x01, 0x05, 0x01, 0x04, 0x01, 0x02, 0x01, 0x02, 0x00, 0xff, 0x04, 0x00,
  0x03, 0x03, 0x06, 0x06, 0x03, 0x05, 0x03, 0x04, 0x03, 0x01, 0x04, 0x00, 0x02, 0x00, 0xfc, 0xff,
  0xfa, 0xfe, 0xfb, 0xfa, 0xff, 0x01, 0x03, 0x04, 0x02, 0x02, 0xfc, 0xfd, 0xfa, 0xfe, 0x00, 0x06,
  0x0c, 0x0d, 0x0d, 0x04, 0xe7, 0x81, 0x00, 0x01, 0x00, 0xfe, 0x01, 0xfe, 0xfe, 0xfe, 0x01, 0xff,
  0x01, 0xff, 0x00, 0x00, 0x00, 0xfd, 0xff, 0x00, 0x02, 0x00, 0x00, 0x00, 0xfe, 0xff, 0x00, 0x00,
  0x02, 0x01, 0xff, 0x01, 0x00, 0x00, 0xff, 0xfe, 0x00, 0xfd, 0x00, 0x00, 0x00, 0xfe, 0x01, 0x00,
  0xff, 0xfe, 0x00, 0x00, 0xff, 0xfe, 0x00, 0xff, 0xff, 0x00, 0x00, 0xff, 0x02, 0xff, 0x01, 0x00,
  0x00, 0x00, 0x01, 0x01, 0x02, 0xff, 0x02, 0xff, 0x01, 0x01, 0x01, 0x00, 0xfe, 0x00, 0x01, 0x00,
  0x01, 0x01, 0x00, 0x01, 0x02, 0x02, 0x02, 0x01, 0xff, 0x01, 0x00, 0x01, 0x01, 0xfe, 0x01, 0xfe,
  0x00, 0xff, 0x02, 0xff, 0xff, 0x02, 0x01, 0xff, 0x01, 0x00, 0x00, 0xfe, 0xfe, 0x01, 0xfe, 0x01,
  0xfe, 0xfe, 0x02, 0x01, 0x00, 0x00, 0x00, 0x00, 0x00, 0xff, 0x00, 0x01, 0xff, 0xff, 0x02, 0x02,
  0x01, 0x01, 0x01, 0x02, 0xff, 0xff, 0xfd, 0x01, 0xfe, 0x02, 0xff, 0x01, 0x02, 0xff, 0xff, 0xfd,
  0xfe, 0x02, 0x02, 0x00, 0x02, 0xff, 0xff, 0xfe, 0x00, 0xff, 0x00, 0x00, 0xff, 0x00, 0x01, 0x00,
  0x01, 0x01, 0x00, 0x01, 0x01, 0x00, 0x01, 0x00, 0x02, 0x02, 0xff, 0x00, 0x01, 0x00, 0x01, 0x01,
  0x00, 0x02, 0xff, 0x01, 0xfe, 0x00, 0x00, 0xff, 0xfe, 0xff, 0x01, 0xff, 0xff, 0x00, 0xfe, 0xfe,
  0x01, 0x00, 0x01, 0x01, 0x00, 0xff, 0xff, 0xff, 0x01, 0x00, 0x00, 0x00, 0x01, 0xfd, 0xfe, 0xff,
  0x00, 0x02, 0x00, 0x02, 0x01, 0x00, 0x00, 0x00, 0x00, 0xff, 0x03, 0x02, 0x01, 0x02, 0x02, 0x02,
  0xff, 0xff, 0xff, 0xfe, 0xff, 0xff, 0xff, 0x00, 0x02, 0x04, 0x00, 0x00, 0x02, 0x00, 0xff, 0x01,
  0xfd, 0xff, 0x00, 0xff, 0x00, 0x01, 0xff, 0x00, 0x01, 0x00, 0x00, 0xff, 0xfe, 0x00, 0xff, 0x01,
  0xff, 0x02, 0x00, 0x01, 0x02, 0x00, 0x00, 0x01, 0x01, 0xff, 0x00, 0xff, 0xff, 0x01, 0x01, 0xfe,
  0x00, 0xff, 0x00, 0x00, 0xfd, 0xfe, 0x01, 0x00, 0x00, 0x00, 0x03, 0xff, 0x01, 0xff, 0x00, 0x02,
  0xff, 0xff, 0x03, 0xff, 0x01, 0x01, 0x00, 0xff, 0x01, 0xff, 0x00, 0xfe, 0xff, 0xfe, 0xff, 0x00,
  0x00, 0x00, 0x02, 0xff, 0x01, 0x00, 0xff, 0xff, 0x00, 0xfe, 0xff, 0xfe, 0x01, 0x00, 0x00, 0x02,
  0xff, 0xfe, 0x01, 0xff, 0xfe, 0xfe, 0x00, 0x01, 0xff, 0xff, 0x01, 0x01, 0x02, 0x01, 0xff, 0x00,
  0x01, 0xff, 0x00, 0xff, 0x01, 0x03, 0xff, 0xff, 0x00, 0xff, 0xff, 0xff, 0x01, 0x01, 0x01, 0x02,
  0x01, 0xfe, 0xff, 0xfd, 0xff, 0xfe, 0xfd, 0xff, 0xff, 0x00, 0x01, 0x00, 0xff, 0x00, 0xff, 0x01,
  0x00, 0x00, 0x03, 0x01, 0x03, 0x01, 0x01, 0x00, 0x01, 0xff, 0x03, 0x02, 0x00, 0x00, 0xff, 0x02,
  0xff, 0xff, 0xff, 0x01, 0x00, 0xff, 0x00, 0x00, 0x01, 0xff, 0x02, 0xff, 0x01, 0x00, 0x01, 0x01,
  0x02, 0xff, 0x01, 0xfe, 0x01, 0xff, 0xff, 0x01, 0x03, 0x01, 0x01, 0x00, 0x00, 0x00, 0x00, 0x01,
  0x01, 0x01, 0xfe, 0x01, 0xfe, 0x00, 0x01, 0xfd, 0xff, 0xfe, 0xff, 0x00, 0xff, 0x00, 0xfe, 0xff,
  0x03, 0x00, 0x01, 0xff, 0xff, 0xfe, 0xff, 0x00, 0xfd, 0xfe, 0xff, 0x01, 0xff, 0x01, 0x01, 0x01,
  0x00, 0x00, 0x01, 0xff, 0x02, 0x01, 0x00, 0x01, 0x03, 0x03, 0x01, 0xff, 0xff, 0x00, 0xff, 0xfd,
  0xff, 0x00, 0x00, 0xfd, 0x01, 0x01, 0x03, 0x00, 0x01, 0x01, 0x01, 0x00, 0x00, 0x01, 0x00, 0x00,
  0x00, 0x00, 0x00, 0xff, 0xfe, 0xff, 0xfe, 0x00, 0xff, 0x01, 0x02, 0xff, 0xff, 0xfe, 0x01, 0xfe,
  0xff, 0xff, 0xfe, 0x01, 0xff, 0x03, 0x01, 0x04, 0xff, 0xff, 0xfa, 0xfc, 0xfc, 0x01, 0x04, 0x0c,
  0x12, 0x11, 0x04, 0xe4, 0x81, 0x00, 0xff, 0x00, 0x02, 0xfe, 0x01, 0xfd, 0xfc, 0xff, 0xff, 0x00,
  0xfe, 0xfe, 0xff, 0xfe, 0xfd, 0x01, 0x00, 0xfe, 0xff, 0xff, 0x00, 0x05, 0xff, 0x00, 0xfe, 0xff,
  0x01, 0xfe, 0x01, 0x00, 0xfe, 0x01, 0x00, 0x03, 0x01, 0xfe, 0xff, 0x01, 0x00, 0xfe, 0xff, 0xfb,
  0xff, 0xfe, 0xfe, 0x00, 0xff, 0x02, 0x00, 0x03, 0xff, 0x02, 0xfe, 0x00, 0xff, 0x00, 0x02, 0xff,
  0x01, 0x00, 0x02, 0x02, 0x03, 0x03, 0x02, 0x06, 0x03, 0x01, 0x04, 0x02, 0x01, 0xff, 0x00, 0xff,
  0x03, 0x01, 0x00, 0x03, 0x02, 0xfe, 0x01, 0xfd, 0x00, 0xfe, 0x02, 0xff, 0x03, 0x01, 0x04, 0x02,
  0x00, 0x03, 0x00, 0xff, 0x03, 0x02, 0x03, 0xfe, 0x01, 0xfe, 0xff, 0x00, 0x01, 0xfe, 0xff, 0x00,
  0xfd, 0xfd, 0x00, 0x01, 0x02, 0x02, 0x00, 0x03, 0xfe, 0x03, 0xfe, 0x02, 0x03, 0x01, 0x02, 0xff,
  0xfd, 0x01, 0xff, 0x02, 0x01, 0xff, 0x01, 0x03, 0x00, 0x00, 0x03, 0x03, 0x01, 0x01, 0x01, 0x00,
  0x00, 0x00, 0x00, 0x02, 0x01, 0x00, 0x04, 0x05, 0x01, 0x02, 0xff, 0x00, 0x01, 0x01, 0xff, 0xff,
  0x02, 0x01, 0x01, 0xff, 0xff, 0xfb, 0xfe, 0x01, 0xff, 0x02, 0x00, 0x03, 0x03, 0x00, 0x02, 0x00,
  0x03, 0x01, 0x02, 0xff, 0x03, 0xfe, 0x01, 0xff, 0xff, 0xff, 0xfe, 0xfb, 0xfd, 0x01, 0xfd, 0x01,
  0xff, 0xff, 0xfe, 0x01, 0x03, 0x02, 0x00, 0x01, 0xfd, 0xfd, 0xfe, 0x00, 0x01, 0x01, 0x02, 0xff,
  0xfc, 0x00, 0x01, 0xfe, 0xfe, 0xfd, 0xff, 0x00, 0x01, 0x02, 0x00, 0x03, 0x01, 0x02, 0x01, 0x02,
  0x04, 0x01, 0x05, 0x05, 0x00, 0x02, 0xff, 0xfe, 0x00, 0xfe, 0x00, 0x01, 0xfe, 0xff, 0x00, 0xfe,
  0xff, 0x01, 0x00, 0x01, 0x03, 0xfe, 0x00, 0x03, 0x03, 0x01, 0x00, 0xff, 0x02, 0xfd, 0x01, 0xff,
  0x02, 0x00, 0xfe, 0x01, 0xfe, 0x00, 0xfd, 0xfe, 0xff, 0xfe, 0xfe, 0xff, 0x00, 0xfb, 0xfe, 0x01,
  0xff, 0x01, 0x01, 0x02, 0x00, 0x02, 0x04, 0x00, 0x05, 0x04, 0x06, 0x04, 0x05, 0x02, 0x03, 0x01,
  0x00, 0x04, 0x03, 0x04, 0xfe, 0xfe, 0x01, 0x01, 0xfc, 0xfc, 0xfe, 0xfc, 0xfd, 0xfd, 0xff, 0x01,
  0x00, 0x00, 0xfe, 0xfe, 0x02, 0x01, 0x00, 0x02, 0x00, 0x04, 0x00, 0x00, 0x04, 0x03, 0x01, 0xfe,
  0xfe, 0x00, 0xfd, 0xfd, 0x00, 0xff, 0xfc, 0xfc, 0xfd, 0xfc, 0xfe, 0x01, 0x03, 0x02, 0x01, 0x02,
  0x00, 0x03, 0x02, 0xfe, 0xfb, 0xfd, 0xfb, 0xfc, 0xfd, 0xff, 0xfe, 0x01, 0x00, 0x01, 0x03, 0xff,
  0xff, 0x01, 0xfd, 0xff, 0x02, 0x01, 0x01, 0x02, 0x01, 0xfe, 0xfe, 0x03, 0x02, 0x03, 0x04, 0x01,
  0x01, 0x00, 0xff, 0x02, 0xfd, 0xfd, 0xfe, 0xff, 0xfc, 0xfe, 0xfd, 0x02, 0x00, 0xfe, 0x00, 0x02,
  0xfe, 0x00, 0xff, 0xff, 0xff, 0xfe, 0x00, 0x00, 0xfc, 0xfe, 0xff, 0xfe, 0xfc, 0xfc, 0xfc, 0xff,
  0xff, 0x04, 0x01, 0xff, 0x02, 0xfd, 0xfe, 0xff, 0xfc, 0xfd, 0xfc, 0x01, 0xff, 0x00, 0xfe, 0x03,
  0x02, 0x03, 0x04, 0x01, 0x01, 0x02, 0xff, 0x02, 0xff, 0xfe, 0xfd, 0xff, 0xfe, 0xff, 0x00, 0xfe,
  0xfd, 0x01, 0x00, 0x02, 0x00, 0x03, 0x01, 0x03, 0x01, 0x03, 0xff, 0x02, 0x03, 0x01, 0x02, 0x02,
  0x01, 0x01, 0x02, 0xff, 0xff, 0x04, 0x01, 0x04, 0x04, 0x02, 0xff, 0xfe, 0xff, 0x02, 0x01, 0xfe,
  0x01, 0x01, 0x00, 0x03, 0xff, 0xfd, 0x01, 0xff, 0x01, 0xff, 0xff, 0x01, 0x02, 0x00, 0x02, 0x01,
  0x00, 0x02, 0x03, 0x05, 0x01, 0xfe, 0xff, 0xfd, 0xfc, 0xfd, 0xfa, 0xff, 0xfe, 0x03, 0x04, 0x02,
  0x05, 0x01, 0x01, 0xfe, 0xfd, 0x01, 0xfd, 0xfd, 0x04, 0x02, 0x02, 0x00, 0xff, 0xfa, 0xf2, 0xee,
  0xf2, 0xff, 0x1e, 0x7f, 0x04, 0x00, 0x02, 0x01, 0xff, 0xfe, 0x00, 0xfe, 0xfe, 0x01, 0x00, 0x01,
  0x00, 0x03, 0x00, 0x03, 0x02, 0x03, 0x02, 0xff, 0x01, 0xfe, 0x00, 0xfd, 0xfd, 0x00, 0xff, 0xfe,
  0x00, 0x01, 0xfe, 0xff, 0x02, 0xff, 0xfe, 0xff, 0x03, 0xff, 0x01, 0x03, 0xff, 0x02, 0x00, 0xfe,
  0xff, 0x00, 0xfd, 0xff, 0xfc, 0x00, 0xfd, 0x01, 0x01, 0x02, 0x00, 0x02, 0x01, 0x02, 0xff, 0xff,
  0xff, 0x02, 0xfe, 0x02, 0x01, 0x02, 0x02, 0x02, 0xfe, 0xff, 0x01, 0x00, 0x00, 0xfe, 0xfd, 0xfe,
  0xfe, 0x01, 0x00, 0xff, 0xff, 0x00, 0x00, 0x01, 0x03, 0x03, 0xfe, 0xff, 0x01, 0x00, 0x01, 0x00,
  0x01, 0xff, 0x01, 0xff, 0x00, 0x00, 0x00, 0xff, 0xff, 0x00, 0xfe, 0xff, 0x01, 0x01, 0x01, 0x01,
  0x03, 0x02, 0x01, 0x02, 0x00, 0x01, 0x02, 0xfe, 0x01, 0xff, 0xff, 0x00, 0xff, 0xfe, 0xfd, 0xfd,
  0x01, 0xff, 0xfe, 0x00, 0x00, 0x00, 0xff, 0x00, 0x01, 0x01, 0xff, 0x00, 0xff, 0x00, 0x02, 0x03,
  0x02, 0x03, 0x00, 0x02, 0xfe, 0x00, 0xff, 0x01, 0x00, 0xfe, 0xff, 0xff, 0xfe, 0x01, 0xff, 0x00,
  0x01, 0x03, 0xff, 0x03, 0x01, 0x01, 0x03, 0x00, 0x02, 0x01, 0x02, 0x01, 0xff, 0x00, 0x00, 0x01,
  0xfe, 0xfe, 0x01, 0x00, 0x01, 0x00, 0x00, 0x02, 0x04, 0x00, 0x00, 0x00, 0x03, 0x01, 0xff, 0xfd,
  0xfe, 0xfd, 0xfd, 0xfe, 0x01, 0x02, 0x03, 0x02, 0x03, 0x02, 0x01, 0xff, 0xff, 0x01, 0x03, 0x02,
  0x00, 0xfe, 0x01, 0x00, 0xfe, 0x00, 0x00, 0x00, 0xff, 0x01, 0x01, 0x01, 0x01, 0xff, 0x01, 0x02,
  0x00, 0x02, 0x01, 0xff, 0x00, 0xff, 0x02, 0x01, 0xff, 0xff, 0x00, 0x00, 0x02, 0x02, 0x02, 0x00,
  0x03, 0x04, 0x00, 0x03, 0x03, 0x01, 0xff, 0x02, 0x02, 0x02, 0x00, 0xff, 0x00, 0xfe, 0xff, 0x00,
  0xfe, 0x00, 0xff, 0xfe, 0xfe, 0x01, 0x01, 0x02, 0x02, 0x00, 0x02, 0x01, 0x02, 0x03, 0x02, 0x01,
  0x01, 0xff, 0x01, 0x00, 0xff, 0xfe, 0x01, 0xfe, 0xfe, 0x02, 0x00, 0x02, 0x00, 0x02, 0xff, 0x01,
  0x02, 0xfd, 0xff, 0xfe, 0x00, 0xfe, 0x00, 0x01, 0x00, 0x01, 0xff, 0x00, 0x00, 0x01, 0x01, 0xff,
  0x01, 0x01, 0x01, 0xfe, 0x01, 0xff, 0x01, 0x00, 0xfe, 0x00, 0x01, 0xff, 0x02, 0xfe, 0xff, 0x01,
  0xff, 0x00, 0x02, 0x02, 0x00, 0x00, 0xfe, 0x00, 0xff, 0x00, 0x00, 0xfe, 0x01, 0x01, 0xff, 0xff,
  0xff, 0xfe, 0x02, 0x01, 0x02, 0x02, 0x00, 0x00, 0x00, 0x01, 0x03, 0x00, 0xff, 0x00, 0xff, 0x00,
  0xff, 0x02, 0x01, 0x00, 0x02, 0xff, 0x01, 0xff, 0x00, 0xff, 0xff, 0xfe, 0x00, 0xfd, 0xff, 0x01,
  0x00, 0x03, 0x02, 0x01, 0xff, 0xff, 0x01, 0x00, 0x02, 0x02, 0x02, 0x04, 0x00, 0x02, 0x02, 0x03,
  0x04, 0x03, 0x03, 0xfe, 0xff, 0xff, 0x00, 0xff, 0xfd, 0xfe, 0xff, 0x02, 0xff, 0x01, 0x01, 0xff,
  0x01, 0x01, 0xfd, 0x00, 0x01, 0x00, 0x02, 0x01, 0x02, 0x02, 0xff, 0x02, 0x02, 0xff, 0x03, 0x02,
  0x01, 0x01, 0x03, 0x02, 0xff, 0x01, 0xff, 0x01, 0xff, 0xfc, 0xfe, 0xfd, 0xff, 0xff, 0xff, 0xff,
  0x00, 0xfe, 0x00, 0xfe, 0x02, 0x01, 0x00, 0x02, 0x00, 0x01, 0x01, 0x02, 0x00, 0xfd, 0x01, 0xfe,
  0xfe, 0x01, 0x00, 0x00, 0x00, 0x00, 0xfd, 0xfe, 0x00, 0x00, 0xff, 0x00, 0xff, 0xfe, 0xfd, 0x00,
  0xfe, 0xfd, 0xff, 0x01, 0x03, 0x03, 0x02, 0x02, 0xfe, 0xfc, 0xff, 0xfc, 0xfd, 0xfe, 0x00, 0xfe,
  0x00, 0x01, 0xff, 0xfd, 0xff, 0x01, 0x01, 0x00, 0x02, 0x00, 0xff, 0x02, 0xff, 0xff, 0x01, 0x00,
  0xfe, 0x01, 0xff, 0x02, 0x00, 0xff, 0xfe, 0xfc, 0xfc, 0xf9, 0xfc, 0xfb, 0x02, 0x0b, 0x0d, 0x0f,
  0x04, 0xe4, 0x81, 0x01, 0x02, 0x00, 0xfe, 0x01, 0x00, 0x01, 0xff, 0x01, 0xfe, 0x01, 0xff, 0x00,
  0x00, 0x00, 0xff, 0x01, 0xff, 0x02, 0x02, 0xff, 0x00, 0x00, 0x02, 0x02, 0xff, 0xff, 0x03, 0x00,
  0x02, 0x00, 0x02, 0x00, 0x00, 0x02, 0xff, 0xff, 0x01, 0x00, 0x02, 0x00, 0xff, 0xff, 0x00, 0x00,
  0x02, 0xfe, 0x01, 0x00, 0xff, 0x00, 0xfe, 0x01, 0x01, 0x02, 0x01, 0xff, 0xfe, 0xff, 0xff, 0xfe,
  0x00, 0x01, 0x01, 0xff, 0x01, 0x02, 0x00, 0x00, 0xff, 0x00, 0x00, 0xff, 0x02, 0x02, 0x00, 0x00,
  0xff, 0x00, 0x00, 0x00, 0xfe, 0x01, 0xff, 0x00, 0x02, 0x00, 0xff, 0xfe, 0x01, 0xff, 0x00, 0x00,
  0xff, 0x00, 0xff, 0x01, 0x00, 0x02, 0x01, 0x01, 0x00, 0x00, 0x01, 0x01, 0x00, 0xff, 0x00, 0xff,
  0x01, 0x00, 0x00, 0x01, 0xff, 0xff, 0x02, 0x00, 0x00, 0x01, 0x00, 0x00, 0x01, 0x01, 0x01, 0x01,
  0xff, 0xff, 0x00, 0xff, 0x00, 0x00, 0x00, 0x03, 0x02, 0xff, 0x02, 0x00, 0xfe, 0xff, 0xff, 0x00,
  0xff, 0x00, 0x01, 0x02, 0x01, 0x00, 0x02, 0x00, 0xff, 0xff, 0x00, 0xff, 0xff, 0xff, 0x00, 0xff,
  0x01, 0x01, 0x01, 0x01, 0xff, 0x01, 0x01, 0x00, 0xff, 0x02, 0x01, 0x01, 0x02, 0x02, 0xff, 0xff,
  0x01, 0xfe, 0x01, 0x01, 0x01, 0x02, 0x00, 0x00, 0x00, 0xff, 0xff, 0xff, 0x01, 0x00, 0x02, 0x02,
  0xff, 0xfe, 0xfe, 0xff, 0x01, 0x02, 0x00, 0xff, 0xff, 0x01, 0xff, 0x01, 0x00, 0x01, 0x00, 0x01,
  0x01, 0x00, 0xfe, 0x00, 0x00, 0xff, 0xff, 0x00, 0x02, 0xff, 0x00, 0x02, 0x00, 0xff, 0xff, 0x01,
  0xff, 0xfe, 0x00, 0x01, 0x01, 0x02, 0x02, 0xff, 0x00, 0x00, 0x01, 0xfe, 0x01, 0x01, 0x01, 0x00,
  0xff, 0x01, 0x00, 0xfe, 0xff, 0xff, 0x00, 0x01, 0x02, 0xff, 0x00, 0xff, 0x01, 0xff, 0xff, 0x01,
  0xfe, 0x01, 0xff, 0x01, 0xfd, 0xfe, 0xff, 0x01, 0x00, 0x02, 0xff, 0x01, 0x00, 0x02, 0x00, 0x01,
  0x00, 0x01, 0x00, 0x01, 0x00, 0x01, 0xff, 0x02, 0xff, 0x02, 0xff, 0x00, 0xff, 0x00, 0x01, 0x01,
  0x00, 0xfe, 0x01, 0xff, 0x00, 0x00, 0xfd, 0x00, 0xff, 0xff, 0x00, 0x00, 0xfe, 0x00, 0x00, 0xff,
  0x01, 0x01, 0xff, 0xff, 0xfe, 0x00, 0xff, 0xfe, 0xff, 0x01, 0x01, 0x00, 0x03, 0x02, 0xff, 0xfe,
  0xff, 0x01, 0x01, 0xfe, 0xff, 0x00, 0x02, 0x02, 0x00, 0xff, 0x02, 0x00, 0xff, 0xff, 0x00, 0x01,
  0x00, 0x02, 0x00, 0x01, 0x00, 0x01, 0x00, 0x00, 0x00, 0xff, 0xff, 0x01, 0xfe, 0x00, 0x01, 0xff,
  0x00, 0xff, 0x01, 0xfe, 0x00, 0x00, 0x01, 0x00, 0x02, 0xff, 0xfe, 0x01, 0x01, 0x00, 0xff, 0x02,
  0xff, 0xff, 0x01, 0x00, 0x00, 0x01, 0xfe, 0x00, 0x00, 0xfe, 0x00, 0x01, 0x00, 0x00, 0x01, 0x02,
  0x02, 0x00, 0xff, 0x01, 0x00, 0x00, 0x00, 0x00, 0x01, 0xff, 0x02, 0x00, 0xff, 0x00, 0xff, 0xfe,
  0xff, 0xff, 0x01, 0x00, 0x01, 0xff, 0xff, 0xff, 0x02, 0x02, 0xff, 0x00, 0x02, 0xff, 0x01, 0x01,
  0x00, 0x00, 0x02, 0x00, 0x01, 0xff, 0x01, 0x00, 0x00, 0xff, 0x00, 0x03, 0x01, 0x04, 0x00, 0x02,
  0xff, 0x00, 0xfe, 0xfe, 0x00, 0x01, 0xfe, 0xff, 0xff, 0x01, 0x01, 0x02, 0x00, 0x00, 0x03, 0x01,
  0x00, 0x00, 0x01, 0x00, 0xfe, 0x00, 0xff, 0x00, 0x00, 0xff, 0xff, 0x01, 0x00, 0x00, 0xff, 0x00,
  0xfe, 0xff, 0xfe, 0x02, 0x00, 0x02, 0x00, 0x02, 0x01, 0x00, 0x00, 0x00, 0x03, 0x01, 0x01, 0x01,
  0x00, 0x01, 0x01, 0x00, 0x01, 0xfe, 0x01, 0xff, 0x01, 0xff, 0x02, 0x01, 0xfe, 0xff, 0xfd, 0x00,
  0xfe, 0x00, 0x02, 0x01, 0x02, 0xfe, 0xfe, 0xfd, 0xfe, 0xfc, 0x00, 0x07, 0x0c, 0x0f, 0x0e, 0x05,
  0xe4, 0x81, 0x00, 0x00, 0xff, 0xfe, 0xff, 0x01, 0xfe, 0xfe, 0xff, 0xfd, 0xff, 0xfe, 0xff, 0xfd,
  0xfd, 0xfe, 0xfe, 0xfe, 0xfd, 0xff, 0x00, 0x00, 0xfe, 0xff, 0x00, 0x00, 0xff, 0x01, 0x02, 0x01,
  0x00, 0x03, 0x00, 0x02, 0xff, 0x02, 0x01, 0x01, 0xff, 0xfe, 0xff, 0xff, 0x00, 0xfe, 0xfe, 0xfd,
  0x00, 0xff, 0x00, 0xff, 0x00, 0x01, 0xfd, 0xfd, 0x00, 0x00, 0xfe, 0xff, 0x00, 0x00, 0x02, 0x02,
  0x00, 0x00, 0xfe, 0x00, 0x00, 0xff, 0xff, 0x00, 0x03, 0xff, 0x00, 0xff, 0x01, 0xff, 0x02, 0x02,
  0xff, 0xfe, 0xfe, 0xfd, 0xfc, 0xfd, 0xff, 0x00, 0x00, 0x01, 0x01, 0x04, 0x03, 0x03, 0x03, 0xff,
  0xff, 0x02, 0x00, 0x02, 0x00, 0xff, 0x02, 0x00, 0xfd, 0x00, 0xfd, 0xfe, 0x02, 0x01, 0xff, 0x02,
  0xff, 0xfe, 0xff, 0x00, 0xff, 0x00, 0x01, 0xff, 0x00, 0xff, 0x02, 0x02, 0x03, 0x02, 0x04, 0x00,
  0x01, 0x00, 0x01, 0xff, 0xfe, 0xff, 0xff, 0xfb, 0xff, 0x01, 0x00, 0x01, 0xff, 0x01, 0x01, 0x03,
  0x00, 0x01, 0x03, 0x04, 0x00, 0x01, 0x03, 0x04, 0x03, 0x02, 0x02, 0x02, 0x00, 0x00, 0x00, 0x00,
  0x00, 0x01, 0xff, 0x01, 0x02, 0x00, 0xff, 0x02, 0x00, 0x01, 0xfd, 0x00, 0x00, 0xff, 0x01, 0x02,
  0x00, 0xff, 0x02, 0xfe, 0xfe, 0x01, 0x01, 0xfe, 0xfd, 0x00, 0xfd, 0xfe, 0xfe, 0xff, 0xff, 0x01,
  0x00, 0x01, 0xff, 0xfe, 0xfe, 0x01, 0xff, 0xfe, 0xff, 0xfe, 0xff, 0x00, 0xfd, 0x01, 0x01, 0x03,
  0x01, 0x02, 0x03, 0x00, 0xfe, 0x01, 0xfe, 0xfd, 0xff, 0xfd, 0xfd, 0xfc, 0xff, 0xff, 0xfd, 0xff,
  0x00, 0x01, 0x02, 0x03, 0x03, 0x01, 0xff, 0x02, 0x00, 0x00, 0xfe, 0xff, 0xff, 0xff, 0xfe, 0x00,
  0x01, 0x01, 0x02, 0x01, 0x01, 0x03, 0x00, 0x00, 0xfe, 0x01, 0x00, 0xff, 0xff, 0x00, 0x02, 0xfe,
  0xfe, 0x01, 0xfe, 0xfe, 0xff, 0xfe, 0xff, 0xff, 0x03, 0x01, 0x01, 0x01, 0x01, 0x03, 0xff, 0x00,
  0xff, 0x00, 0xfd, 0xfd, 0x01, 0x01, 0x00, 0x01, 0xff, 0x02, 0x02, 0x00, 0x02, 0x02, 0xff, 0x02,
  0x00, 0x03, 0x01, 0x00, 0x02, 0xff, 0xff, 0x01, 0xfd, 0xff, 0xfc, 0xff, 0xfd, 0xff, 0xfd, 0x00,
  0xfe, 0x00, 0xff, 0x00, 0xfe, 0xfd, 0x01, 0x02, 0x00, 0x00, 0x04, 0x01, 0x03, 0x02, 0x04, 0x00,
  0xff, 0xfe, 0xfe, 0x01, 0x00, 0x00, 0xfd, 0xfd, 0xfd, 0xfe, 0x00, 0xfd, 0x00, 0x02, 0xfe, 0x02,
  0x01, 0x00, 0x02, 0xfe, 0x00, 0xff, 0xfd, 0xfe, 0xfe, 0xff, 0xff, 0x01, 0x04, 0x04, 0x00, 0x01,
  0x03, 0x01, 0x00, 0x00, 0xff, 0xff, 0x00, 0xfe, 0x01, 0xff, 0xfe, 0x01, 0xfd, 0x00, 0x00, 0xfc,
  0xfe, 0xfe, 0xfc, 0xfd, 0xfd, 0x00, 0xff, 0xff, 0xff, 0xfe, 0xfe, 0x02, 0xff, 0x00, 0x02, 0x02,
  0x01, 0x01, 0x00, 0x03, 0x00, 0x01, 0x01, 0x03, 0x02, 0x02, 0x01, 0xff, 0x01, 0xff, 0xfe, 0xff,
  0x00, 0xfe, 0x00, 0x01, 0xff, 0xff, 0xfd, 0x01, 0x01, 0xff, 0xfe, 0xff, 0x02, 0x02, 0x03, 0x03,
  0x03, 0xff, 0x01, 0x01, 0x00, 0x00, 0x02, 0xff, 0xff, 0x01, 0x00, 0x00, 0xfd, 0x00, 0xff, 0xfe,
  0xff, 0xfd, 0xff, 0xfc, 0xfd, 0xfc, 0xfc, 0xfd, 0xfe, 0xfd, 0x01, 0x01, 0x01, 0x00, 0x03, 0x01,
  0x00, 0x00, 0x00, 0x00, 0xff, 0xff, 0xff, 0xfd, 0xfe, 0x01, 0x00, 0x02, 0x02, 0x03, 0x02, 0x01,
  0x05, 0x02, 0x01, 0x00, 0xff, 0xfe, 0xff, 0xfe, 0xfe, 0x00, 0xfe, 0x01, 0x01, 0xff, 0x00, 0x04,
  0x02, 0x02, 0x00, 0x01, 0xfe, 0xfe, 0xfe, 0xff, 0x00, 0x00, 0xff, 0x01, 0x00, 0x02, 0x04, 0x00,
  0x00, 0x00, 0xfc, 0xfe, 0xfe, 0x02, 0x04, 0x03, 0x07, 0x02, 0x01, 0xfd, 0xf5, 0xf5, 0xfe, 0x19,
  0x7f, 0x01, 0x00, 0x01, 0x02, 0x02, 0x01, 0x00, 0xff, 0x00, 0x01, 0xff, 0x00, 0xff, 0x01, 0x01,
  0x01, 0x00, 0x00, 0xfe, 0x01, 0x02, 0xff, 0x00, 0x03, 0x02, 0xff, 0x01, 0x01, 0x02, 0x02, 0x00,
  0xff, 0x02, 0xfe, 0xfe, 0x00, 0xfe, 0xfe, 0x01, 0x00, 0x02, 0x01, 0xff, 0xff, 0xff, 0x02, 0x00,
  0xff, 0x00, 0xfe, 0xff, 0x00, 0x02, 0xfe, 0xff, 0x01, 0x02, 0xff, 0x02, 0x00, 0x01, 0x01, 0x02,
  0x00, 0x01, 0xfe, 0x00, 0xff, 0x00, 0xfc, 0x00, 0x00, 0x00, 0xff, 0x00, 0xfe, 0x00, 0x01, 0x02,
  0x01, 0x01, 0x03, 0x03, 0xff, 0x01, 0x00, 0xfe, 0x00, 0x00, 0xff, 0x00, 0xfe, 0x00, 0xfd, 0xfd,
  0x00, 0x01, 0x00, 0x01, 0x02, 0xff, 0x01, 0x01, 0x01, 0xfd, 0x01, 0xfe, 0x01, 0xff, 0xfe, 0x02,
  0x03, 0x03, 0x01, 0x00, 0xff, 0x03, 0x02, 0x00, 0xff, 0x01, 0x01, 0xff, 0x00, 0x00, 0x00, 0xff,
  0xff, 0xfe, 0x00, 0x03, 0x00, 0x00, 0x01, 0x00, 0xfe, 0x02, 0xfe, 0x00, 0x00, 0x00, 0x00, 0xff,
  0x00, 0x01, 0x01, 0xfe, 0x01, 0x02, 0x00, 0xff, 0x00, 0xfe, 0xfe, 0x01, 0x00, 0x03, 0xff, 0x02,
  0x00, 0x00, 0x01, 0x04, 0x02, 0x04, 0x00, 0x01, 0x01, 0xff, 0xfd, 0xfe, 0x00, 0x01, 0x02, 0x02,
  0x02, 0xff, 0xfd, 0xff, 0x00, 0x00, 0x02, 0x04, 0x03, 0x01, 0x01, 0x02, 0x02, 0x00, 0x01, 0xff,
  0x02, 0x02, 0x01, 0x01, 0xff, 0xfe, 0xfe, 0x01, 0x01, 0x02, 0x02, 0x02, 0x02, 0xff, 0x00, 0xff,
  0xff, 0xfd, 0xfd, 0xff, 0x01, 0x00, 0x00, 0x02, 0x03, 0x02, 0x00, 0x02, 0x00, 0x02, 0x00, 0xff,
  0x02, 0x00, 0x00, 0xff, 0x01, 0x00, 0xfe, 0x02, 0x00, 0xff, 0x02, 0xff, 0x00, 0x02, 0xff, 0xfe,
  0x00, 0x00, 0x02, 0x00, 0xfe, 0x03, 0xff, 0x03, 0x03, 0xff, 0x00, 0xff, 0x00, 0xff, 0x00, 0xff,
  0x01, 0x02, 0xff, 0x02, 0x01, 0x04, 0x03, 0x02, 0x01, 0x01, 0x00, 0xff, 0xff, 0x01, 0xff, 0xfe,
  0xfe, 0x01, 0x01, 0xff, 0xfe, 0x00, 0x00, 0x00, 0x01, 0xff, 0x01, 0x01, 0x01, 0xfe, 0xfd, 0xfe,
  0xfe, 0x00, 0xff, 0xfd, 0xff, 0x02, 0xff, 0x01, 0x01, 0x02, 0x02, 0x00, 0x01, 0x00, 0x01, 0xff,
  0xfe, 0xfe, 0xff, 0xfe, 0xfe, 0xfe, 0x01, 0x00, 0xfe, 0x00, 0x00, 0x02, 0x03, 0x03, 0x02, 0x00,
  0xfe, 0x00, 0xff, 0x01, 0x00, 0xff, 0x00, 0x01, 0xff, 0x02, 0x02, 0x02, 0xfe, 0xff, 0x00, 0xff,
  0x01, 0x02, 0x02, 0xfe, 0x00, 0x00, 0x00, 0x00, 0x01, 0xfe, 0xfe, 0x00, 0x01, 0x00, 0x01, 0x02,
  0x02, 0x00, 0x03, 0x00, 0x01, 0x00, 0xff, 0xfd, 0x01, 0xfd, 0xfe, 0x00, 0xff, 0x00, 0x01, 0x00,
  0xff, 0x01, 0x01, 0xff, 0x00, 0x01, 0x00, 0xfe, 0x00, 0xfe, 0x01, 0x02, 0x00, 0x03, 0x02, 0x00,
  0x02, 0x00, 0x01, 0x02, 0x00, 0x00, 0xff, 0x00, 0x00, 0x01, 0xff, 0xfe, 0x00, 0x02, 0xfe, 0x00,
  0xff, 0x00, 0xfe, 0xfd, 0x01, 0x01, 0x00, 0x00, 0x00, 0xff, 0xff, 0xff, 0xff, 0x01, 0x03, 0x02,
  0x03, 0x01, 0xff, 0xfe, 0xfe, 0xff, 0xfd, 0xff, 0x01, 0x01, 0xff, 0xfe, 0xff, 0xff, 0xff, 0xfe,
  0x02, 0x02, 0xff, 0x01, 0x00, 0x01, 0x00, 0x00, 0xff, 0x01, 0x02, 0x02, 0xff, 0x02, 0x03, 0x03,
  0x02, 0xff, 0x01, 0x01, 0xfe, 0xfd, 0xfb, 0xfb, 0xfe, 0xff, 0x02, 0x01, 0x01, 0x01, 0x04, 0x01,
  0xff, 0x00, 0x00, 0x00, 0xff, 0x00, 0xfd, 0xfe, 0x00, 0x00, 0xfe, 0x00, 0x01, 0x02, 0x02, 0x02,
  0x00, 0x01, 0x00, 0x00, 0xff, 0xff, 0xfe, 0xff, 0xfe, 0xfe, 0xfe, 0x00, 0x01, 0x00, 0xfd, 0xfb,
  0xfd, 0xfb, 0xfe, 0xfe, 0x00, 0xff, 0x01, 0x03, 0xff, 0xfd, 0xf9, 0xf1, 0xf3, 0xfd, 0x1d, 0x7f,
  0x03, 0x05, 0xff, 0xf8, 0xff, 0xfa, 0xf7, 0x00, 0xf7, 0xff, 0x01, 0x00, 0xfb, 0xfe, 0x07, 0x01,
  0x04, 0x0c, 0x07, 0x0c, 0x03, 0x05, 0x0c, 0x09, 0x01, 0xfe, 0x00, 0x05, 0x01, 0x03, 0xfd, 0x03,
  0xfe, 0xfc, 0xfb, 0x01, 0x03, 0xfa, 0xf4, 0xfa, 0xfe, 0xff, 0xf5, 0xfb, 0xf9, 0x04, 0xff, 0x05,
  0x04, 0x0a, 0x0a, 0x05, 0x02, 0xfb, 0x02, 0xfa, 0x03, 0x00, 0xfe, 0xf8, 0xfb, 0xfb, 0xf9, 0xf9,
  0xfd, 0x03, 0xfe, 0xf8, 0xfd, 0xfc, 0x00, 0xfb, 0xfe, 0xfe, 0x02, 0xfb, 0x00, 0xfe, 0xfd, 0x01,
  0xf9, 0x03, 0xff, 0xfc, 0xfc, 0x03, 0x05, 0x01, 0x02, 0x05, 0x02, 0x01, 0x03, 0x04, 0x02, 0x00,
  0x01, 0x02, 0xfc, 0x02, 0xfc, 0xfa, 0x01, 0xff, 0x04, 0xfe, 0xfe, 0x00, 0x04, 0x0b, 0x0d, 0x03,
  0x02, 0x01, 0x09, 0x01, 0x09, 0x03, 0x01, 0xfb, 0xfb, 0x06, 0xff, 0x02, 0x01, 0x02, 0x08, 0x03,
  0x01, 0x01, 0xff, 0xfb, 0x00, 0xfd, 0x06, 0xfe, 0x03, 0x05, 0xfe, 0x00, 0x02, 0xfd, 0x00, 0xf7,
  0xf9, 0x02, 0xfb, 0xf9, 0xfd, 0xfd, 0xff, 0xf8, 0x03, 0x00, 0xfb, 0x04, 0xfc, 0x00, 0x04, 0x01,
  0x03, 0x0c, 0x0b, 0x08, 0x02, 0x06, 0xfa, 0xfc, 0xfe, 0x02, 0xff, 0xfa, 0x00, 0xfe, 0x02, 0xff,
  0xfd, 0x06, 0xff, 0x0a, 0x06, 0xfd, 0x01, 0xfc, 0x02, 0x02, 0x02, 0xfd, 0xfc, 0x06, 0x09, 0x03,
  0x09, 0x06, 0x0e, 0x08, 0x06, 0x0d, 0x07, 0x00, 0x02, 0xfc, 0xf9, 0xf6, 0xfa, 0xf9, 0xf4, 0xfc,
  0xf9, 0xfb, 0xf8, 0xf7, 0xfb, 0xfb, 0x04, 0xff, 0x01, 0x00, 0x02, 0xff, 0x01, 0xfd, 0xfc, 0xfe,
  0x01, 0x06, 0xfb, 0x05, 0x01, 0xff, 0xfe, 0xfd, 0xfb, 0xfd, 0xf7, 0x00, 0xf8, 0xff, 0xf7, 0xf9,
  0xf8, 0xf2, 0xfb, 0xfc, 0xf4, 0xfa, 0x00, 0xfe, 0xfa, 0xff, 0xfa, 0xf9, 0xfe, 0xf3, 0xfc, 0xf6,
  0x01, 0xf8, 0xfb, 0x01, 0x03, 0xfc, 0xfc, 0xfd, 0xfb, 0xfa, 0xf9, 0x04, 0xff, 0x03, 0xfd, 0xff,
  0x08, 0x03, 0x01, 0xf8, 0xfd, 0x02, 0xff, 0xfd, 0x03, 0x07, 0x04, 0x0e, 0x05, 0x08, 0x0d, 0x07,
  0x0c, 0x0d, 0x03, 0x04, 0x03, 0x09, 0x05, 0x05, 0xfb, 0xf8, 0xfa, 0xf6, 0xf1, 0xfa, 0xfd, 0xfb,
  0x00, 0xfd, 0xff, 0xf8, 0xff, 0xfd, 0xfe, 0x02, 0x08, 0x0b, 0x04, 0x01, 0x06, 0xfe, 0x04, 0x03,
  0xf9, 0xfc, 0x02, 0x00, 0xff, 0xff, 0xfc, 0xf6, 0xf3, 0xf4, 0xf4, 0xfa, 0x00, 0xfa, 0xfc, 0xfb,
  0x05, 0xfb, 0x01, 0x05, 0x00, 0x03, 0x06, 0x04, 0xf8, 0xf9, 0xff, 0xf8, 0xf9, 0xfe, 0xf7, 0xf4,
  0xfe, 0x00, 0x00, 0x01, 0xfe, 0xff, 0x04, 0xfb, 0xfb, 0xff, 0x06, 0x02, 0xfc, 0x04, 0x01, 0x09,
  0x09, 0xfd, 0xfd, 0xfe, 0x00, 0x05, 0xff, 0x00, 0x08, 0x02, 0xfe, 0x07, 0x01, 0xff, 0x05, 0x05,
  0x02, 0x00, 0xfe, 0xf7, 0x01, 0xf9, 0xfb, 0xfd, 0x04, 0x09, 0xfe, 0x06, 0x08, 0xfd, 0x03, 0x00,
  0x01, 0xff, 0x03, 0x02, 0x09, 0x0d, 0x0b, 0x04, 0x03, 0x04, 0x01, 0x05, 0x03, 0xfd, 0x05, 0x09,
  0x0a, 0x09, 0x0c, 0x0f, 0x05, 0x0e, 0x0e, 0x07, 0x0b, 0x02, 0x03, 0xfc, 0xf6, 0xf4, 0xf8, 0xf8,
  0xf8, 0xf9, 0xf7, 0x01, 0xfc, 0x01, 0x03, 0xff, 0xfe, 0xfc, 0x01, 0xfe, 0xfe, 0xfd, 0x02, 0xff,
  0xff, 0xfd, 0x05, 0xf9, 0x02, 0xfe, 0x01, 0x01, 0x03, 0x07, 0x06, 0x07, 0xfa, 0xfe, 0xff, 0xfc,
  0xfb, 0x04, 0x06, 0xff, 0x01, 0x00, 0x03, 0x06, 0xfd, 0x01, 0x02, 0xfd, 0xff, 0x01, 0x00, 0x02,
  0xfe, 0xfd, 0x07, 0xfe, 0xfe, 0x00, 0x06, 0x07, 0xfd, 0x04, 0xfa, 0xfc, 0xfe, 0x06, 0x00, 0x05,
  0xfd, 0xfd, 0x03, 0xfc, 0x00, 0xf8, 0xf7, 0x03, 0x09, 0x17, 0x1f, 0x1e, 0x1f, 0xfb, 0x81, 0x04,
  0xfd, 0xfd, 0x04, 0x04, 0xfd, 0x05, 0x05, 0x05, 0x04, 0x04, 0x02, 0x02, 0x05, 0x02, 0xfc, 0x03,
  0x00, 0x04, 0xfd, 0xfd, 0xfb, 0x01, 0xf9, 0xff, 0xfd, 0x00, 0xf9, 0xff, 0xfe, 0xfe, 0x00, 0xfc,
  0xfd, 0x03, 0x02, 0x02, 0x01, 0xfc, 0xfa, 0xf6, 0xff, 0xf6, 0xfb, 0xff, 0xf9, 0x00, 0xfe, 0xff,
  0xff, 0xff, 0x02, 0x00, 0x02, 0xfe, 0x05, 0x00, 0x04, 0x01, 0x01, 0x01, 0x04, 0x01, 0x01, 0xfe,
  0xff, 0xfb, 0xff, 0xfc, 0xff, 0x02, 0xfc, 0xfb, 0x01, 0x00, 0xfc, 0xfd, 0xfd, 0xff, 0x00, 0x06,
  0x03, 0xfc, 0xf9, 0xfb, 0xff, 0xfd, 0x00, 0x00, 0xff, 0xfd, 0xf9, 0xfe, 0xff, 0x03, 0x01, 0xfb,
  0xfe, 0x03, 0xfb, 0x02, 0xfb, 0xfd, 0xfb, 0x00, 0xfa, 0xfd, 0xfd, 0xf8, 0xfd, 0xf9, 0xfa, 0xfd,
  0xff, 0x07, 0x03, 0x05, 0x06, 0x06, 0x00, 0xfc, 0x04, 0xfd, 0xfc, 0xfd, 0x02, 0x06, 0xff, 0x03,
  0x05, 0x03, 0x04, 0x04, 0x08, 0x09, 0x01, 0x02, 0x00, 0x00, 0x02, 0xfa, 0xfa, 0xfa, 0xf7, 0xf5,
  0xfb, 0xfd, 0x01, 0x06, 0x06, 0x04, 0x00, 0x04, 0x04, 0x04, 0x03, 0x00, 0xfc, 0xfb, 0x03, 0xff,
  0x01, 0x02, 0x00, 0x01, 0xfd, 0x01, 0xfe, 0xfd, 0xfd, 0x07, 0x06, 0x08, 0x06, 0x03, 0x05, 0x02,
  0xfd, 0x03, 0xfa, 0x00, 0x01, 0xfc, 0xfc, 0xfe, 0x01, 0x02, 0xfa, 0x03, 0xff, 0xfc, 0x01, 0xfd,
  0xfa, 0xfc, 0x02, 0xfb, 0xfc, 0x03, 0xff, 0xff, 0x01, 0xfe, 0xf8, 0xfe, 0xf8, 0xf9, 0xf9, 0xfe,
  0xf9, 0xf8, 0xfc, 0xf8, 0xf5, 0xfb, 0xfe, 0xfe, 0xf8, 0x00, 0xfd, 0xf8, 0xf9, 0x00, 0xff, 0xfd,
  0xfd, 0xf8, 0xf7, 0xf7, 0xf8, 0xfc, 0x02, 0xff, 0x04, 0x02, 0x09, 0x03, 0x06, 0x03, 0x0a, 0x03,
  0x06, 0x02, 0x01, 0x05, 0x05, 0xfe, 0x04, 0xfe, 0xfe, 0x02, 0x02, 0x01, 0x05, 0x06, 0x02, 0x00,
  0x05, 0xff, 0x04, 0xfd, 0x01, 0xfc, 0xf8, 0x00, 0xfb, 0xfe, 0xfe, 0x03, 0xfe, 0x01, 0x00, 0xfa,
  0x03, 0xfd, 0xff, 0x01, 0x03, 0x07, 0x07, 0x02, 0x08, 0x03, 0x03, 0x05, 0x03, 0x0a, 0x0b, 0x03,
  0x0a, 0x03, 0x08, 0x03, 0x01, 0x05, 0x03, 0xfd, 0xfd, 0xf9, 0xff, 0xfa, 0xfc, 0xfa, 0x00, 0x08,
  0x08, 0x0a, 0x0e, 0x07, 0x0a, 0x06, 0x05, 0x01, 0x02, 0xfc, 0xfc, 0x01, 0x04, 0x02, 0x06, 0x01,
  0x07, 0xfc, 0x01, 0xfe, 0xf6, 0xfe, 0xfa, 0x02, 0x04, 0x0a, 0x0c, 0x0d, 0x05, 0x0b, 0x01, 0x05,
  0x01, 0x02, 0x00, 0x00, 0x09, 0x01, 0x03, 0x07, 0x03, 0x05, 0x01, 0xfc, 0xfa, 0xf8, 0x00, 0xff,
  0x01, 0x00, 0xf9, 0xfa, 0xfd, 0xfc, 0xfc, 0xfb, 0xf7, 0x02, 0xfe, 0xfd, 0x02, 0xfe, 0x02, 0x01,
  0x02, 0x02, 0x00, 0xff, 0xf9, 0xfd, 0xfb, 0x00, 0xfb, 0x00, 0xfc, 0xfb, 0xf9, 0x02, 0xfb, 0xff,
  0x01, 0x00, 0x02, 0xfc, 0xfb, 0xfb, 0xfe, 0x00, 0x04, 0x06, 0x06, 0x06, 0x04, 0x05, 0x0b, 0x00,
  0xfe, 0x05, 0xfb, 0xfa, 0xfe, 0xfe, 0xfb, 0x01, 0xfd, 0xff, 0xfd, 0xfe, 0xfd, 0xfd, 0xfe, 0x07,
  0xfe, 0x00, 0x00, 0xff, 0xfa, 0xfd, 0xfe, 0x01, 0xfc, 0xfa, 0x02, 0xfc, 0xfd, 0x05, 0xff, 0xfa,
  0xfa, 0xf7, 0x00, 0xfd, 0x00, 0x01, 0xfa, 0xfd, 0x03, 0x00, 0x09, 0x09, 0x04, 0x08, 0x09, 0x02,
  0x06, 0x02, 0x02, 0xfb, 0xf6, 0xf6, 0xf4, 0xf1, 0xf2, 0xfa, 0xfc, 0xfc, 0xfc, 0xfd, 0xfb, 0xfb,
  0xfa, 0xfc, 0xfb, 0x01, 0x03, 0x08, 0x00, 0x03, 0x06, 0x0c, 0x10, 0x0f, 0x0d, 0x08, 0x06, 0x07,
  0x00, 0xfd, 0xfc, 0x00, 0xf7, 0xf8, 0x03, 0xfd, 0x05, 0x0a, 0x0a, 0x04, 0x08, 0x0b, 0x0a, 0x02,
  0xfe, 0x06, 0x05, 0x04, 0x06, 0x09, 0x03, 0x02, 0xf6, 0xf2, 0xf4, 0xfc, 0x17, 0x7f, 0x01, 0x01,
  0xff, 0x01, 0x01, 0xff, 0x02, 0x00, 0x01, 0x00, 0x01, 0xff, 0xfe, 0x02, 0xfe, 0xff, 0x02, 0x01,
  0xff, 0x01, 0xff, 0xff, 0x00, 0x00, 0x02, 0x02, 0x04, 0x00, 0x01, 0x00, 0x01, 0xfd, 0xfe, 0x00,
  0x01, 0xfe, 0x01, 0x01, 0x00, 0x00, 0x01, 0x04, 0x04, 0x01, 0x01, 0x02, 0xff, 0x01, 0x02, 0xff,
  0x00, 0x00, 0xff, 0x02, 0x01, 0x00, 0xff, 0x02, 0x01, 0xff, 0xff, 0xff, 0xfc, 0xff, 0xfe, 0xfd,
  0xff, 0x01, 0xff, 0x01, 0xfe, 0xff, 0xff, 0x00, 0x02, 0x00, 0x02, 0x00, 0x02, 0x03, 0x02, 0x00,
  0x00, 0xff, 0xff, 0x00, 0xff, 0x04, 0x04, 0x01, 0x02, 0x02, 0xff, 0xff, 0x00, 0xfe, 0x01, 0x01,
  0x00, 0x00, 0x02, 0xff, 0x02, 0xff, 0x00, 0x01, 0xff, 0x00, 0x02, 0x01, 0xff, 0x01, 0x00, 0xfd,
  0xfd, 0x00, 0x00, 0xfe, 0xff, 0x02, 0x00, 0x00, 0xff, 0xfe, 0x00, 0xff, 0x02, 0x00, 0x00, 0x04,
  0x01, 0x01, 0x03, 0x00, 0xfd, 0xfe, 0xfe, 0x00, 0xfe, 0x01, 0x01, 0xfe, 0x00, 0x00, 0xff, 0xff,
  0x00, 0x01, 0x01, 0xff, 0x00, 0x00, 0x00, 0x01, 0xfe, 0xfd, 0xfe, 0xfe, 0x01, 0x00, 0x01, 0x04,
  0x02, 0x01, 0x01, 0x01, 0x01, 0xff, 0x02, 0xfe, 0xff, 0xff, 0x02, 0xff, 0xff, 0xff, 0x01, 0x00,
  0x00, 0xff, 0x01, 0x00, 0x02, 0x02, 0x01, 0x02, 0x00, 0xff, 0xfc, 0x00, 0xfe, 0x00, 0x01, 0xfe,
  0x02, 0x01, 0x03, 0x01, 0x02, 0x04, 0x00, 0x01, 0x02, 0x01, 0x01, 0x00, 0x01, 0xfe, 0x01, 0xfd,
  0xff, 0x02, 0x02, 0x03, 0x03, 0x00, 0xff, 0xff, 0x02, 0xff, 0x00, 0x00, 0x00, 0x02, 0x00, 0xff,
  0x01, 0xff, 0xff, 0x02, 0x01, 0x01, 0xfe, 0x01, 0xff, 0x01, 0xff, 0x00, 0x00, 0xfe, 0xfe, 0x00,
  0xff, 0x00, 0x02, 0x00, 0x00, 0xfe, 0x01, 0xfe, 0xff, 0xfd, 0xfe, 0xff, 0xfc, 0xfe, 0x00, 0xff,
  0x00, 0xfe, 0x00, 0xff, 0x03, 0x01, 0x04, 0x00, 0x01, 0x01, 0x00, 0xff, 0x00, 0xff, 0x00, 0xff,
  0xff, 0xfd, 0xfc, 0xff, 0xfe, 0xff, 0xfc, 0x00, 0xfe, 0xfe, 0x00, 0x02, 0x00, 0x00, 0xff, 0x00,
  0x02, 0x00, 0x00, 0x02, 0x02, 0x00, 0xfe, 0xff, 0xff, 0x01, 0xff, 0xfe, 0xff, 0xff, 0x00, 0x00,
  0xfd, 0x00, 0x00, 0x02, 0xff, 0xfe, 0xff, 0xfe, 0xff, 0x00, 0x01, 0x00, 0x02, 0x03, 0xff, 0x02,
  0x02, 0x02, 0x00, 0xff, 0xfe, 0x01, 0x00, 0x00, 0xfd, 0xfe, 0xfd, 0x00, 0xfd, 0x00, 0x02, 0x00,
  0x02, 0x02, 0x02, 0x03, 0x02, 0x01, 0xff, 0x00, 0xfd, 0xff, 0x00, 0xfe, 0xff, 0xff, 0xff, 0x01,
  0xfe, 0xfe, 0xfe, 0x01, 0xfe, 0x01, 0xff, 0x02, 0x01, 0xff, 0xff, 0xff, 0x00, 0x01, 0x00, 0xfe,
  0x01, 0x00, 0xff, 0x00, 0xff, 0x03, 0x01, 0xff, 0x00, 0x01, 0x00, 0x01, 0x00, 0xfe, 0x00, 0x00,
  0x02, 0xfe, 0xfe, 0x01, 0xfd, 0xfe, 0xfe, 0xff, 0x02, 0xff, 0x02, 0x00, 0xff, 0xff, 0xfd, 0xfe,
  0xff, 0xfd, 0xfe, 0xfe, 0x00, 0xfd, 0x00, 0xfe, 0xff, 0x02, 0x00, 0x00, 0x00, 0xfe, 0x00, 0xfe,
  0xfe, 0xff, 0xfc, 0x00, 0xfe, 0x01, 0x01, 0x00, 0x01, 0x01, 0xff, 0xfe, 0x01, 0xff, 0x02, 0x00,
  0xff, 0x01, 0x01, 0x01, 0xff, 0xfe, 0x00, 0x03, 0x01, 0x00, 0x01, 0x02, 0x02, 0x00, 0x03, 0x03,
  0x00, 0x01, 0xfd, 0xfd, 0xfd, 0xfe, 0xfc, 0xfc, 0xfe, 0xfe, 0x02, 0xfe, 0xfd, 0x01, 0x00, 0x00,
  0xfe, 0xfd, 0xfe, 0xff, 0x01, 0x01, 0x02, 0xff, 0xff, 0xfd, 0x01, 0xfe, 0x00, 0x00, 0xff, 0x00,
  0x01, 0xfd, 0xfd, 0xfe, 0xfe, 0x00, 0xfc, 0xfc, 0xfe, 0xff, 0x00, 0xfd, 0xfe, 0xfd, 0xff, 0xff,
  0x00, 0x03, 0x02, 0x05, 0x02, 0x02, 0xfc, 0xf6, 0xf1, 0xf5, 0xfd, 0x21, 0x7f, 0x00, 0xfd, 0xfe,
  0x00, 0x03, 0xfe, 0xfe, 0x01, 0x01, 0xff, 0x00, 0xff, 0xfe, 0x00, 0xfa, 0xfe, 0xfb, 0xfd, 0xff,
  0x01, 0x01, 0x02, 0x02, 0x00, 0x02, 0x05, 0x04, 0x03, 0x03, 0x02, 0x01, 0xff, 0x00, 0x02, 0xff,
  0xfe, 0x01, 0x00, 0xff, 0x02, 0xff, 0x02, 0xfe, 0x02, 0xff, 0x01, 0xfe, 0xfe, 0x03, 0x00, 0x01,
  0x03, 0x00, 0x00, 0x00, 0x01, 0xfe, 0x02, 0xff, 0xff, 0xff, 0xff, 0x02, 0x02, 0x02, 0x04, 0x04,
  0x03, 0x00, 0x01, 0x03, 0x03, 0x05, 0x03, 0x04, 0x01, 0x02, 0x00, 0xff, 0x03, 0x00, 0xff, 0x01,
  0xff, 0x00, 0xfe, 0x01, 0xfd, 0x01, 0xff, 0xff, 0x01, 0x01, 0xfe, 0xfe, 0x02, 0xff, 0xfd, 0xfd,
  0xff, 0xfc, 0xfc, 0xfb, 0xff, 0xfe, 0xff, 0x02, 0x00, 0xfe, 0xff, 0xfd, 0xfe, 0x01, 0xff, 0x00,
  0xff, 0x02, 0xff, 0x01, 0xfd, 0x01, 0xfd, 0xfb, 0x00, 0xfe, 0xff, 0xff, 0xfc, 0x00, 0xff, 0x01,
  0xfe, 0xff, 0xff, 0x02, 0xfe, 0x02, 0x01, 0x03, 0x02, 0x02, 0x01, 0x06, 0x03, 0x05, 0xff, 0xff,
  0xfe, 0xfd, 0xfd, 0xfc, 0xfc, 0xfb, 0xfe, 0xfe, 0x01, 0xfe, 0xff, 0xff, 0x02, 0x00, 0xfc, 0x02,
  0xfe, 0xff, 0x02, 0x03, 0xff, 0x00, 0xfe, 0xff, 0xfe, 0x03, 0x00, 0x02, 0x00, 0x03, 0x00, 0x01,
  0x00, 0xfe, 0xff, 0xfe, 0x00, 0xfd, 0xfd, 0xfe, 0xfd, 0x00, 0xff, 0x02, 0xff, 0x01, 0x05, 0x05,
  0x01, 0x03, 0x00, 0xff, 0x02, 0xfe, 0x00, 0xff, 0xff, 0xfe, 0xfe, 0x02, 0xfe, 0x00, 0x01, 0x00,
  0xff, 0xff, 0x04, 0x01, 0x00, 0xff, 0x00, 0x01, 0x01, 0xfe, 0x03, 0x02, 0xff, 0xff, 0x01, 0x02,
  0x02, 0x00, 0x03, 0x05, 0x04, 0x03, 0x03, 0x00, 0x03, 0x03, 0x03, 0x04, 0x00, 0x00, 0x01, 0xfd,
  0x00, 0xfe, 0xff, 0xff, 0xff, 0x00, 0x00, 0xff, 0xff, 0x00, 0xfe, 0x00, 0x00, 0x00, 0x01, 0xfe,
  0xff, 0x02, 0x01, 0x05, 0x03, 0x00, 0x02, 0xff, 0x01, 0x02, 0x03, 0xff, 0xfe, 0xff, 0xff, 0x00,
  0xfd, 0xfc, 0xff, 0x01, 0xfd, 0xfe, 0x00, 0xff, 0xfe, 0x00, 0x01, 0xfe, 0xfe, 0xfd, 0xfb, 0xfe,
  0xfd, 0xfa, 0xfd, 0xfe, 0xfb, 0xfe, 0xfc, 0xff, 0x01, 0xff, 0x03, 0x04, 0x03, 0x02, 0xfe, 0x02,
  0xfe, 0xff, 0x01, 0x00, 0xff, 0xfb, 0x00, 0x01, 0xfe, 0xff, 0xff, 0xfd, 0x02, 0x02, 0x00, 0x02,
  0x00, 0x03, 0x00, 0xfe, 0x01, 0xfe, 0xff, 0x00, 0x03, 0x02, 0xfe, 0x00, 0x02, 0x01, 0xff, 0x03,
  0x02, 0x00, 0x00, 0x00, 0xfe, 0xff, 0xfe, 0x00, 0x01, 0x00, 0xff, 0x03, 0x00, 0x02, 0x00, 0x01,
  0x02, 0x01, 0x00, 0xff, 0xff, 0xfd, 0x02, 0x01, 0x02, 0xff, 0x00, 0x01, 0x02, 0x02, 0xff, 0x00,
  0x00, 0xff, 0xff, 0xfe, 0xfd, 0xfe, 0x03, 0x03, 0x03, 0x00, 0x02, 0x01, 0x00, 0x03, 0x00, 0x05,
  0x05, 0x00, 0x04, 0xff, 0xfe, 0x03, 0x01, 0x00, 0x03, 0x03, 0x03, 0x04, 0x01, 0xff, 0x00, 0xfe,
  0xfd, 0xfc, 0xfc, 0x00, 0xfc, 0xfb, 0x00, 0xfc, 0xfb, 0xfb, 0xfb, 0xfc, 0xfe, 0xfe, 0xfe, 0xfb,
  0xff, 0xfc, 0x02, 0x02, 0x02, 0xfe, 0xfd, 0x01, 0xff, 0x00, 0x03, 0x02, 0x05, 0x02, 0x03, 0x01,
  0xfe, 0xfd, 0xfe, 0xfd, 0xfb, 0xfc, 0xfb, 0xfc, 0xfb, 0xfd, 0xfe, 0xfe, 0x03, 0x03, 0x02, 0x02,
  0x01, 0x01, 0x00, 0x00, 0x01, 0xfe, 0x02, 0x01, 0xfd, 0x00, 0xfd, 0x01, 0x02, 0x00, 0x01, 0x01,
  0xff, 0x04, 0x00, 0x00, 0x02, 0xfe, 0xff, 0xfe, 0xfd, 0xfd, 0xfd, 0x00, 0x00, 0x04, 0x04, 0x03,
  0x03, 0x03, 0x02, 0x03, 0x01, 0x04, 0xfe, 0x03, 0xfe, 0x00, 0x00, 0xfa, 0xfe, 0xfd, 0xfc, 0xfb,
  0x00, 0x03, 0x02, 0x03, 0x07, 0x01, 0xff, 0xf7, 0xfc, 0x02, 0x22, 0x7f, 0xff, 0x02, 0xff, 0xff,
  0x02, 0xff, 0x00, 0x02, 0x02, 0x00, 0x00, 0x01, 0xff, 0xff, 0xfd, 0xff, 0x00, 0xfe, 0x01, 0xff,
  0x00, 0x00, 0xff, 0xff, 0x01, 0x01, 0x01, 0x00, 0x00, 0xff, 0x02, 0x02, 0xff, 0x02, 0x02, 0x00,
  0x00, 0x01, 0x01, 0x04, 0x01, 0x02, 0x02, 0x03, 0x02, 0x01, 0x01, 0x00, 0x00, 0xfe, 0xfe, 0x00,
  0xfd, 0xff, 0x02, 0x01, 0x01, 0x00, 0x03, 0x03, 0xff, 0x03, 0xfe, 0xfe, 0x00, 0xff, 0x01, 0x00,
  0x00, 0x00, 0xff, 0xff, 0x00, 0x02, 0x00, 0xff, 0x01, 0x02, 0x00, 0x02, 0xff, 0xff, 0xfe, 0x00,
  0xfe, 0x01, 0xff, 0xfe, 0x01, 0xfe, 0x02, 0x01, 0xff, 0x00, 0x03, 0x00, 0x02, 0xfe, 0xff, 0xfe,
  0x01, 0xfe, 0xfe, 0x01, 0xfe, 0xfe, 0x00, 0x00, 0x01, 0x00, 0x01, 0xff, 0x01, 0x00, 0x00, 0x00,
  0xff, 0x01, 0x00, 0x00, 0x00, 0xfe, 0xfb, 0xfb, 0xfb, 0xfe, 0xfe, 0xfd, 0xfe, 0x01, 0x01, 0x00,
  0xff, 0xff, 0xfd, 0xff, 0xfd, 0xff, 0x00, 0x00, 0x01, 0x00, 0x00, 0x00, 0xfe, 0xff, 0x01, 0xfe,
  0xfd, 0xff, 0x00, 0xff, 0x01, 0xff, 0xff, 0xfe, 0xfe, 0xff, 0x01, 0x01, 0xff, 0x00, 0x00, 0x02,
  0xff, 0x03, 0xff, 0x00, 0x01, 0x01, 0x01, 0xff, 0xff, 0x00, 0x00, 0xff, 0x00, 0xff, 0xff, 0x02,
  0x00, 0x01, 0x03, 0x01, 0x01, 0x05, 0x02, 0x01, 0x03, 0xff, 0x00, 0x01, 0x01, 0x00, 0x00, 0xff,
  0x00, 0x01, 0x02, 0x01, 0xff, 0x00, 0x01, 0x01, 0x01, 0xfe, 0xfc, 0xfd, 0xff, 0xfd, 0xfd, 0xfc,
  0xfd, 0xfa, 0xff, 0xfd, 0x00, 0xfe, 0x03, 0xff, 0xff, 0x01, 0x01, 0x03, 0x00, 0x00, 0x02, 0x03,
  0x02, 0x03, 0x01, 0xff, 0xfe, 0xff, 0xfe, 0xff, 0x00, 0x00, 0xff, 0x00, 0x00, 0x00, 0x01, 0x02,
  0x00, 0x01, 0x00, 0x00, 0x03, 0x01, 0x03, 0x02, 0x02, 0x03, 0x00, 0x04, 0x01, 0x00, 0x01, 0x01,
  0xff, 0xff, 0x00, 0x00, 0x01, 0x00, 0x02, 0x03, 0x05, 0x00, 0x00, 0x00, 0x00, 0x01, 0x02, 0x03,
  0x02, 0x02, 0x04, 0x02, 0x03, 0x02, 0x03, 0xff, 0x00, 0xff, 0x02, 0x01, 0xff, 0xfd, 0x02, 0x01,
  0x01, 0xfe, 0xff, 0x00, 0x01, 0x04, 0x05, 0x04, 0x02, 0x02, 0x01, 0x03, 0x04, 0x02, 0x01, 0x01,
  0x05, 0x03, 0x02, 0x02, 0x01, 0x03, 0xff, 0x02, 0x00, 0x00, 0xfe, 0xfe, 0x01, 0x03, 0x03, 0x00,
  0x00, 0x02, 0x00, 0xff, 0xfe, 0x03, 0x02, 0x01, 0x01, 0x01, 0xff, 0xff, 0xff, 0x03, 0x03, 0x03,
  0x03, 0x01, 0x04, 0x04, 0x02, 0xff, 0xfe, 0xfd, 0x00, 0xff, 0xfe, 0xff, 0x00, 0xff, 0xff, 0xfe,
  0x00, 0xfe, 0x00, 0x00, 0x01, 0xfd, 0xff, 0xfc, 0xfd, 0xfd, 0xff, 0x00, 0xfe, 0xff, 0xfd, 0xff,
  0x00, 0x00, 0xfe, 0x00, 0xff, 0x00, 0xff, 0x03, 0xff, 0x01, 0x01, 0x02, 0xff, 0x00, 0xfe, 0xff,
  0xff, 0xff, 0xfd, 0xff, 0x00, 0x01, 0x02, 0x03, 0x03, 0x00, 0x04, 0x01, 0x02, 0x01, 0x01, 0x03,
  0x04, 0x02, 0x04, 0x00, 0x03, 0x01, 0x03, 0xff, 0x00, 0x00, 0x00, 0x00, 0x01, 0xfe, 0xfc, 0xff,
  0xfd, 0xfa, 0xfb, 0xfc, 0xff, 0xfe, 0x00, 0xff, 0x02, 0xff, 0xff, 0x02, 0x01, 0x01, 0x02, 0xff,
  0xfe, 0x00, 0x00, 0x01, 0xfd, 0x01, 0xff, 0x00, 0xff, 0x01, 0x01, 0x00, 0x01, 0x00, 0xff, 0x01,
  0x02, 0xfe, 0x01, 0x03, 0x04, 0x00, 0x01, 0x03, 0x03, 0x03, 0x02, 0x00, 0xff, 0xff, 0x00, 0x00,
  0xfb, 0xfd, 0xfb, 0xfc, 0x00, 0xfe, 0x00, 0xfe, 0x02, 0xfe, 0xfe, 0xff, 0xfd, 0xff, 0xff, 0xfd,
  0x00, 0x01, 0x01, 0xfe, 0x00, 0xfe, 0xff, 0x01, 0x03, 0x02, 0x01, 0x02, 0x02, 0x04, 0xff, 0x01,
  0xfc, 0xfc, 0xfb, 0xff, 0x02, 0x06, 0x0a, 0x0d, 0x04, 0xe7, 0x81, 0x02, 0x00, 0xfd, 0x05, 0xfd,
  0x01, 0xfc, 0x02, 0xfb, 0x01, 0xfc, 0xff, 0xfa, 0xf9, 0xf9, 0xfc, 0xfa, 0xfd, 0x05, 0xfe, 0x03,
  0x05, 0xfb, 0xfb, 0xf9, 0xfb, 0xf7, 0xfb, 0xf8, 0xfb, 0xfc, 0x02, 0x00, 0xfe, 0xfb, 0xfd, 0x05,
  0xff, 0x03, 0xff, 0x00, 0x00, 0x05, 0x02, 0x01, 0x00, 0x00, 0x0a, 0x06, 0x06, 0x01, 0x07, 0xff,
  0x02, 0x03, 0xfb, 0x00, 0xfe, 0xfb, 0xfa, 0xfc, 0xfd, 0xff, 0xfe, 0xfe, 0xfe, 0x03, 0xfe, 0x03,
  0x04, 0x05, 0x00, 0x07, 0x06, 0xff, 0x04, 0xfe, 0xfc, 0xfd, 0x01, 0x02, 0x01, 0x03, 0x01, 0x07,
  0x07, 0x03, 0xff, 0xfe, 0x00, 0x03, 0xff, 0xfe, 0x04, 0xfd, 0xfe, 0x03, 0xfa, 0xfd, 0xfe, 0xff,
  0x00, 0xfe, 0xfe, 0xfb, 0xff, 0xfa, 0xfe, 0xfc, 0xfd, 0x03, 0xff, 0xfc, 0xfc, 0xfe, 0xfb, 0x00,
  0xf9, 0xff, 0xfa, 0xfc, 0xfb, 0xfe, 0x05, 0x05, 0x02, 0x01, 0x02, 0xff, 0xff, 0xfe, 0xfe, 0xff,
  0xfd, 0xff, 0xff, 0x02, 0xfa, 0xfd, 0x05, 0x03, 0x00, 0x02, 0x04, 0x03, 0x02, 0x03, 0x00, 0xfc,
  0xfd, 0xfc, 0xfd, 0xfc, 0xff, 0xff, 0x00, 0x02, 0xff, 0x00, 0x03, 0x00, 0x00, 0x02, 0xfe, 0x03,
  0xfe, 0x00, 0x03, 0x02, 0xfd, 0xfd, 0xf7, 0xf1, 0xf6, 0xf3, 0xfa, 0xf7, 0xfc, 0xff, 0x01, 0x05,
  0x02, 0x04, 0x00, 0xfc, 0x00, 0x03, 0x01, 0xfe, 0xfd, 0xf9, 0xfc, 0xfa, 0xfc, 0x02, 0x06, 0x04,
  0x07, 0x03, 0x08, 0x09, 0x05, 0xfe, 0x01, 0x00, 0xff, 0x02, 0x00, 0x01, 0x06, 0x02, 0x02, 0x08,
  0x07, 0x08, 0x02, 0x05, 0x05, 0x05, 0x02, 0x03, 0x05, 0x02, 0x05, 0x07, 0x02, 0x03, 0x0a, 0x02,
  0x07, 0x06, 0x01, 0x06, 0x00, 0x04, 0xfd, 0xfd, 0xf9, 0xf5, 0xf5, 0xf7, 0xfb, 0xfa, 0xf9, 0xfd,
  0xf8, 0xff, 0x00, 0xfd, 0xfd, 0x01, 0xfe, 0x04, 0x01, 0x02, 0xfd, 0xfd, 0x03, 0x04, 0x01, 0x02,
  0x03, 0x04, 0x02, 0x03, 0x03, 0x02, 0x00, 0xff, 0x00, 0xff, 0xfc, 0xf8, 0xfd, 0xf6, 0xf8, 0xfe,
  0xfb, 0xfa, 0xfc, 0x03, 0xfe, 0x04, 0x05, 0x02, 0x05, 0x02, 0x06, 0xff, 0x04, 0x02, 0x03, 0x06,
  0x00, 0x04, 0xff, 0x04, 0xff, 0xfa, 0xfa, 0xfd, 0xfb, 0xf5, 0xfc, 0xfd, 0xfc, 0x01, 0x01, 0x01,
  0x06, 0x03, 0xfe, 0xfb, 0x00, 0xfb, 0xf8, 0xff, 0x00, 0xfe, 0xfb, 0x04, 0x00, 0x01, 0x03, 0xfa,
  0x00, 0xfa, 0x03, 0xfe, 0x05, 0x00, 0x06, 0x04, 0x04, 0xff, 0xff, 0xfe, 0xfd, 0x03, 0x01, 0xff,
  0x00, 0x01, 0x06, 0x03, 0xfe, 0x06, 0x05, 0xfe, 0xff, 0x01, 0x07, 0x05, 0x03, 0x08, 0x02, 0x06,
  0x08, 0x08, 0x04, 0x05, 0x06, 0x09, 0x01, 0x09, 0x06, 0xfe, 0xfe, 0x01, 0xfd, 0xfc, 0x00, 0xfe,
  0x02, 0x00, 0xff, 0x01, 0x03, 0xff, 0xfe, 0x04, 0x05, 0x00, 0x04, 0x08, 0x02, 0x07, 0x01, 0x05,
  0x02, 0x03, 0x04, 0xff, 0xf9, 0xfd, 0xf3, 0xfb, 0xf6, 0xfc, 0xfc, 0xf5, 0xf8, 0xfa, 0xf8, 0xfb,
  0xf6, 0xfd, 0xfc, 0x02, 0xfe, 0xfc, 0xff, 0x06, 0x08, 0x0c, 0x09, 0x06, 0x0b, 0x0d, 0x0b, 0x05,
  0x06, 0x01, 0x05, 0x00, 0xfe, 0x05, 0x02, 0xfc, 0xfb, 0xf7, 0xf5, 0xf8, 0xef, 0xf0, 0xf8, 0xfa,
  0xf7, 0xf4, 0xfd, 0xfb, 0xfd, 0xfc, 0xf8, 0xfe, 0x01, 0xfe, 0x02, 0xfd, 0xfe, 0xfe, 0xfe, 0x04,
  0xfd, 0xfd, 0xfc, 0xfd, 0x00, 0xf8, 0xf7, 0xfb, 0xf8, 0xfd, 0xfb, 0xf8, 0xfa, 0x05, 0xff, 0x02,
  0x08, 0x09, 0x08, 0x06, 0x00, 0xfe, 0xff, 0xfd, 0xf9, 0xfa, 0xfc, 0xfb, 0x00, 0x00, 0x01, 0x02,
  0x02, 0x03, 0x04, 0x05, 0xfb, 0xfa, 0xff, 0xf8, 0xf5, 0xfb, 0xfd, 0xfa, 0xfc, 0xfd, 0xff, 0xfd,
  0xf8, 0xfe, 0xff, 0x00, 0x0b, 0x09, 0x0b, 0x00, 0xe9, 0x81, 0x02, 0x03, 0x00, 0x01, 0xff, 0xfe,
  0x00, 0x01, 0x00, 0x02, 0x01, 0x03, 0x02, 0x01, 0x02, 0x00, 0x00, 0x00, 0x01, 0x01, 0xfd, 0xfe,
  0xfc, 0xfd, 0x00, 0xfd, 0xfe, 0x00, 0xff, 0x01, 0x01, 0xff, 0x02, 0xfe, 0x01, 0xfe, 0xfd, 0xfc,
  0xff, 0xff, 0x00, 0x00, 0xfe, 0x02, 0x02, 0x02, 0x00, 0xff, 0xff, 0xff, 0x01, 0xff, 0x01, 0xff,
  0xff, 0x02, 0x03, 0x00, 0xff, 0xff, 0x01, 0x02, 0x03, 0x02, 0x01, 0x02, 0x03, 0x02, 0x01, 0x02,
  0x03, 0x02, 0x02, 0x04, 0x04, 0x04, 0x01, 0x00, 0x00, 0x02, 0xff, 0xfe, 0xfd, 0x01, 0xfd, 0xfe,
  0x00, 0xff, 0xfd, 0xfe, 0xff, 0x02, 0x00, 0xfd, 0xfe, 0x01, 0x01, 0xfd, 0xff, 0x01, 0xfd, 0xfb,
  0xfd, 0xfc, 0xfe, 0xff, 0xfe, 0xff, 0xff, 0xfe, 0xfc, 0x00, 0x00, 0x01, 0xfe, 0x00, 0xfe, 0x03,
  0x01, 0xff, 0xfe, 0xfd, 0xfd, 0x01, 0x01, 0xfd, 0xfe, 0xff, 0xff, 0x00, 0xfe, 0xfe, 0xfe, 0xfc,
  0xfe, 0xfc, 0xfd, 0x01, 0x01, 0x01, 0x03, 0x01, 0x03, 0x00, 0x01, 0x01, 0x00, 0x01, 0xfe, 0xfe,
  0x03, 0x00, 0x03, 0x00, 0x01, 0x01, 0x01, 0x01, 0x03, 0x01, 0x00, 0x03, 0x02, 0x02, 0x02, 0x03,
  0x02, 0x00, 0xff, 0xff, 0xfe, 0xff, 0xfd, 0x00, 0x02, 0x00, 0xfe, 0x01, 0x00, 0xff, 0xfe, 0xfe,
  0xff, 0xff, 0xff, 0x01, 0x01, 0x02, 0xff, 0x01, 0xff, 0xff, 0xfe, 0x01, 0xfd, 0xff, 0x01, 0xff,
  0x00, 0xfd, 0xfd, 0xfe, 0xfd, 0x01, 0xfd, 0xfd, 0xfe, 0x00, 0xfe, 0xff, 0x00, 0xff, 0x00, 0x00,
  0x00, 0x00, 0xff, 0xff, 0x01, 0xfd, 0x02, 0xfe, 0x02, 0x02, 0x00, 0x01, 0x00, 0xfe, 0xff, 0xfc,
  0xfb, 0xfd, 0x00, 0x01, 0x02, 0x00, 0x03, 0x01, 0x01, 0xff, 0x01, 0xff, 0x02, 0xff, 0x00, 0xfd,
  0x00, 0x00, 0xfe, 0xfe, 0xfe, 0x00, 0xff, 0x00, 0xfe, 0x00, 0xff, 0x02, 0x01, 0x02, 0xff, 0x01,
  0xff, 0x01, 0xfd, 0x02, 0x01, 0x00, 0xfe, 0xfd, 0x01, 0x01, 0x01, 0xff, 0x00, 0xfd, 0x01, 0xfe,
  0xfe, 0x00, 0xfd, 0xff, 0x00, 0xfe, 0xfe, 0xff, 0x01, 0xfc, 0xff, 0x00, 0xfe, 0x02, 0x00, 0x02,
  0x01, 0x01, 0x00, 0x01, 0x00, 0xff, 0x00, 0xfc, 0x00, 0xff, 0xff, 0xff, 0xfe, 0xff, 0xfc, 0xff,
  0x01, 0xfd, 0xfe, 0xfe, 0x02, 0x02, 0x03, 0x00, 0x01, 0x04, 0x01, 0x02, 0x05, 0x05, 0x02, 0x00,
  0x04, 0x00, 0x02, 0x04, 0x00, 0x00, 0x02, 0x02, 0x00, 0x00, 0x02, 0x01, 0x03, 0x01, 0xff, 0xff,
  0x03, 0x01, 0x03, 0xff, 0x01, 0x00, 0xff, 0xfe, 0x00, 0xff, 0xff, 0xfd, 0xfe, 0xfe, 0xfd, 0xff,
  0x01, 0x01, 0xfe, 0xff, 0x01, 0xff, 0x00, 0xff, 0x01, 0x04, 0x02, 0x06, 0x06, 0x05, 0x02, 0x03,
  0x03, 0xff, 0x02, 0x00, 0x01, 0xff, 0x01, 0xff, 0x01, 0xfe, 0xfe, 0x00, 0x00, 0xfe, 0x01, 0x00,
  0x01, 0x03, 0x00, 0x01, 0x02, 0x00, 0xff, 0xff, 0x03, 0x00, 0x00, 0x04, 0x02, 0x05, 0x02, 0x03,
  0x03, 0x03, 0x00, 0x01, 0x00, 0xff, 0x02, 0x02, 0xff, 0x01, 0xff, 0xff, 0x00, 0x00, 0xfc, 0xff,
  0x00, 0xfb, 0x00, 0xfe, 0xfe, 0xfe, 0x00, 0x01, 0x00, 0x02, 0xfe, 0x01, 0xff, 0x01, 0x02, 0x01,
  0x01, 0x03, 0x01, 0x02, 0xff, 0x02, 0x02, 0x00, 0xff, 0xfe, 0x02, 0x02, 0x01, 0x00, 0x02, 0xff,
  0x02, 0x03, 0x00, 0x03, 0x01, 0x00, 0x00, 0x01, 0x00, 0x04, 0x00, 0x00, 0x02, 0xff, 0xfe, 0xff,
  0xff, 0xfc, 0xff, 0x00, 0xff, 0x00, 0x02, 0xff, 0x03, 0x01, 0x03, 0x03, 0x04, 0x04, 0x02, 0x03,
  0x01, 0xfe, 0x02, 0x00, 0x00, 0x01, 0x03, 0x00, 0x01, 0x02, 0x01, 0x00, 0x00, 0xfe, 0xfd, 0xfc,
  0xfc, 0xfe, 0x00, 0x07, 0x07, 0x0c, 0x03, 0xe0, 0x81, 0x00, 0xfb, 0x00, 0xfd, 0x03, 0x03, 0x00,
  0x01, 0x00, 0xff, 0xfe, 0xfc, 0x00, 0xfe, 0x00, 0xfd, 0xff, 0xfd, 0xfe, 0xfd, 0xff, 0xff, 0xfe,
  0x01, 0x00, 0xff, 0x01, 0xfd, 0x02, 0x00, 0x02, 0x03, 0xfe, 0xfe, 0xfd, 0xfe, 0xfc, 0xfc, 0x01,
  0xfc, 0x02, 0xff, 0x00, 0xfe, 0xfe, 0x00, 0xff, 0xfd, 0x00, 0x02, 0x02, 0x00, 0x01, 0xfd, 0x03,
  0xfe, 0xff, 0x00, 0x04, 0xfe, 0x03, 0x01, 0xfd, 0xff, 0xfc, 0xfe, 0x00, 0xfa, 0xfa, 0xfc, 0xfc,
  0xfb, 0xfe, 0x00, 0xfe, 0xff, 0x01, 0x00, 0xfe, 0x01, 0x02, 0x00, 0x01, 0x01, 0xfe, 0xff, 0x01,
  0xfd, 0x01, 0x01, 0xfb, 0x00, 0xfe, 0xfe, 0xfc, 0xfd, 0xfd, 0x04, 0xff, 0x05, 0x02, 0x00, 0x03,
  0x05, 0x00, 0x04, 0x01, 0x00, 0xff, 0xff, 0x02, 0xfc, 0xfe, 0x00, 0xfb, 0xfd, 0xff, 0xfd, 0x00,
  0xfc, 0x00, 0xff, 0x01, 0x03, 0xff, 0xfd, 0x03, 0x01, 0x00, 0x01, 0x06, 0x02, 0x04, 0x02, 0x03,
  0x06, 0x03, 0x06, 0x05, 0x06, 0x03, 0x01, 0x03, 0x01, 0xff, 0x03, 0xff, 0x04, 0x04, 0x01, 0x00,
  0x03, 0x00, 0x06, 0x00, 0xff, 0x03, 0xfe, 0xff, 0x02, 0x01, 0x01, 0xfe, 0x01, 0x01, 0xff, 0x00,
  0x05, 0x03, 0x00, 0x03, 0x04, 0x02, 0x00, 0xfd, 0xfe, 0xfe, 0xfd, 0xfd, 0xfa, 0xf9, 0x00, 0xfe,
  0x00, 0x01, 0x02, 0xff, 0x01, 0x04, 0x04, 0x02, 0x01, 0x05, 0x03, 0x04, 0x02, 0x01, 0x01, 0xff,
  0x04, 0xff, 0xff, 0x02, 0x04, 0x03, 0xfd, 0x01, 0xfd, 0xff, 0xfc, 0xff, 0xfc, 0xff, 0xff, 0x02,
  0x01, 0x03, 0x03, 0x00, 0x00, 0xfe, 0x01, 0x00, 0x00, 0xff, 0xfc, 0xfd, 0xf9, 0xfd, 0x00, 0xfb,
  0xfe, 0x03, 0x02, 0x01, 0xfe, 0x00, 0x04, 0xfe, 0x04, 0x00, 0x03, 0x00, 0x00, 0x02, 0x02, 0xfe,
  0x00, 0x04, 0xff, 0x00, 0xfe, 0x03, 0x00, 0x00, 0x01, 0x02, 0x02, 0xff, 0x00, 0xff, 0x00, 0xff,
  0xfe, 0xff, 0xfe, 0xff, 0xfe, 0x00, 0x01, 0x00, 0x03, 0x01, 0x01, 0xfc, 0xfd, 0xff, 0xfc, 0xff,
  0xfb, 0xfd, 0xfe, 0xfd, 0xff, 0x00, 0xfe, 0x04, 0xff, 0xfe, 0xfc, 0xff, 0xfc, 0xfd, 0x00, 0xff,
  0xfd, 0x01, 0x01, 0xfd, 0x00, 0xff, 0xfc, 0x01, 0xfd, 0xfe, 0xfd, 0xfc, 0xfc, 0x01, 0xff, 0x01,
  0x02, 0xfe, 0x02, 0xfe, 0xfd, 0x01, 0xff, 0x01, 0xfc, 0xfe, 0xfd, 0xfb, 0xfa, 0xfc, 0xff, 0xfa,
  0xfe, 0xfe, 0xfc, 0x03, 0xff, 0x00, 0x00, 0xfd, 0xff, 0x02, 0x03, 0x01, 0x03, 0x03, 0x04, 0x03,
  0x02, 0x04, 0x00, 0xfd, 0xfe, 0x01, 0x01, 0xfe, 0xfd, 0xfe, 0x01, 0x01, 0xfe, 0xff, 0xfe, 0x03,
  0x01, 0xff, 0xff, 0xfd, 0x01, 0x02, 0xfd, 0xfc, 0x00, 0xfe, 0xfc, 0x00, 0xfd, 0xfe, 0xfc, 0xfe,
  0xfe, 0x02, 0x04, 0x03, 0x01, 0x00, 0xfd, 0x02, 0xfe, 0xfc, 0xfa, 0xfb, 0xfb, 0xfe, 0xfb, 0xfc,
  0xfa, 0x01, 0x01, 0xff, 0x00, 0x00, 0xfe, 0x02, 0x01, 0x00, 0x02, 0x00, 0x00, 0xfd, 0xfb, 0x00,
  0xff, 0xfd, 0x02, 0x00, 0xfe, 0xfe, 0xff, 0x01, 0xfe, 0x01, 0x04, 0xfe, 0xfd, 0x01, 0x03, 0xfe,
  0xff, 0xff, 0x02, 0xfe, 0xfe, 0x02, 0xfd, 0x00, 0x00, 0x03, 0x05, 0x04, 0x03, 0x06, 0x07, 0x08,
  0x01, 0x06, 0x04, 0x03, 0x03, 0xff, 0xfd, 0xff, 0xfb, 0xfe, 0xfe, 0x00, 0xff, 0x03, 0x02, 0x02,
  0xfd, 0x03, 0x00, 0x01, 0x03, 0x04, 0x01, 0x00, 0xfe, 0xfc, 0xfe, 0xfd, 0xfc, 0xfe, 0x02, 0xff,
  0x02, 0xff, 0xfd, 0xfc, 0xfe, 0xfa, 0xfc, 0xfc, 0xfb, 0xfc, 0xfd, 0xfb, 0xfc, 0xfd, 0xfc, 0xfa,
  0xfe, 0xfe, 0xff, 0xfc, 0xf9, 0xfe, 0xfe, 0xfb, 0xfb, 0xfd, 0xff, 0xfb, 0x01, 0x05, 0x06, 0x07,
  0xff, 0xfd, 0xf5, 0xf6, 0xf5, 0x02, 0x22, 0x7f, 0xfe, 0xff, 0x03, 0x06, 0xfd, 0xfc, 0x05, 0x05,
  0x01, 0x03, 0xfb, 0xfb, 0x02, 0xfe, 0x01, 0x03, 0x08, 0xfe, 0xfd, 0xfe, 0x08, 0x01, 0xfb, 0xfa,
  0xf9, 0xfa, 0xfd, 0x01, 0x02, 0x0b, 0x07, 0x07, 0x0c, 0x04, 0x05, 0x02, 0xfa, 0xf5, 0xfe, 0xf9,
  0xf9, 0x02, 0xf9, 0xf7, 0x03, 0x02, 0xf8, 0xff, 0x01, 0x03, 0x03, 0x0b, 0x03, 0xfe, 0x02, 0xfb,
  0xf6, 0x00, 0xfd, 0xfb, 0x00, 0xfe, 0x04, 0x03, 0x00, 0xf5, 0xfb, 0xfd, 0xf5, 0x04, 0x03, 0xff,
  0xfb, 0xfd, 0xff, 0xf8, 0xfb, 0x03, 0xfc, 0x03, 0xfd, 0x03, 0x05, 0xff, 0x05, 0xff, 0xf5, 0xff,
  0xf7, 0xfe, 0xf8, 0x01, 0xf7, 0x03, 0x04, 0xff, 0x00, 0x03, 0xff, 0xfc, 0x01, 0xfa, 0xf5, 0xfb,
  0xf9, 0xf8, 0xfd, 0xfe, 0xfe, 0xf9, 0xf9, 0xf7, 0xf8, 0xfa, 0xf6, 0xf3, 0xff, 0xfa, 0xf9, 0xf3,
  0xef, 0xf9, 0xf0, 0xf7, 0xf1, 0xf8, 0xf8, 0xfd, 0x00, 0x00, 0xf6, 0xf5, 0xf5, 0xf2, 0xf3, 0xfe,
  0xf6, 0xff, 0x00, 0xfd, 0xf6, 0xf7, 0xfa, 0x02, 0xfb, 0x08, 0x02, 0x09, 0x06, 0x07, 0x09, 0x0e,
  0x07, 0x03, 0x01, 0x08, 0x08, 0x07, 0x05, 0x06, 0x09, 0x08, 0x00, 0x09, 0x0c, 0x04, 0x06, 0x0b,
  0x04, 0x03, 0x09, 0x02, 0x04, 0xfe, 0xfb, 0x03, 0x02, 0xff, 0x03, 0x06, 0x04, 0x03, 0x0b, 0x03,
  0x06, 0xfa, 0xff, 0xfe, 0xff, 0xf7, 0xfb, 0xfd, 0xfa, 0x00, 0xfe, 0xfa, 0xfb, 0xfc, 0xf9, 0xfb,
  0xfe, 0xff, 0xff, 0x0a, 0x03, 0xff, 0x01, 0xfd, 0xff, 0xfd, 0x00, 0xfb, 0xf8, 0xfd, 0xf7, 0xf5,
  0xee, 0xf9, 0xf4, 0xf7, 0xf8, 0xfc, 0xff, 0xfd, 0xff, 0x09, 0xfd, 0x05, 0xfc, 0xfd, 0x02, 0xfe,
  0x03, 0x01, 0xfe, 0x03, 0xff, 0x06, 0x04, 0x04, 0x01, 0x04, 0x00, 0x03, 0x02, 0x01, 0xfb, 0xfc,
  0x00, 0x03, 0x06, 0xfe, 0xfe, 0xf6, 0xf8, 0xf6, 0xfb, 0xfd, 0xff, 0x04, 0xff, 0xf9, 0x06, 0xfa,
  0x01, 0x01, 0x07, 0x04, 0x04, 0x00, 0x08, 0x00, 0x03, 0x09, 0x00, 0x07, 0x02, 0x01, 0x09, 0xfe,
  0x04, 0x02, 0x01, 0xfd, 0xfe, 0x08, 0x05, 0x0b, 0x0c, 0x07, 0x04, 0x04, 0x02, 0x00, 0xff, 0xfc,
  0x00, 0x04, 0xfa, 0xfa, 0xfe, 0xf9, 0xfe, 0xfb, 0x03, 0xfe, 0x06, 0xfd, 0xfb, 0xfe, 0x02, 0xfd,
  0x03, 0x03, 0x02, 0x0a, 0x12, 0x19, 0x10, 0x13, 0x10, 0x16, 0x11, 0x0e, 0x09, 0x02, 0xfe, 0x03,
  0x01, 0xfa, 0xf8, 0xff, 0xfa, 0xff, 0xfb, 0x05, 0xfb, 0x01, 0x00, 0x02, 0x03, 0x02, 0xf7, 0xf8,
  0xf9, 0xf9, 0xff, 0x00, 0xfc, 0xfb, 0xfc, 0xfe, 0x00, 0x03, 0x0c, 0x00, 0x02, 0x05, 0x00, 0xfe,
  0xf8, 0xfd, 0xf9, 0xfb, 0xf5, 0xf2, 0xf3, 0xfb, 0xfa, 0xfe, 0xf5, 0xfe, 0x00, 0xfd, 0xf8, 0x00,
  0x02, 0x03, 0x07, 0x03, 0xf9, 0x04, 0x00, 0xfc, 0x01, 0x00, 0x03, 0xfe, 0xfb, 0xfc, 0x03, 0xfd,
  0x02, 0x07, 0x01, 0x06, 0xff, 0x05, 0x07, 0xfd, 0xf9, 0x01, 0xf6, 0xfd, 0xf7, 0xfd, 0xfa, 0x01,
  0xfa, 0x05, 0x03, 0x05, 0x06, 0x09, 0x01, 0x06, 0x05, 0x01, 0x05, 0xff, 0x06, 0x07, 0x05, 0x02,
  0xfe, 0x02, 0xff, 0xfb, 0x00, 0xfb, 0xfe, 0xff, 0xfb, 0xf6, 0xfa, 0xf5, 0xfd, 0xfc, 0xf9, 0xfc,
  0xfa, 0xf6, 0xf9, 0xf8, 0xf3, 0xfa, 0xf6, 0xf1, 0xfa, 0xf7, 0xfb, 0xf9, 0x02, 0x03, 0xfc, 0x0a,
  0x08, 0x00, 0x00, 0x05, 0x02, 0xfc, 0xf9, 0xfa, 0xfc, 0xfb, 0x02, 0x08, 0x06, 0x0b, 0x07, 0xff,
  0x05, 0x0b, 0x08, 0x05, 0x07, 0x02, 0x02, 0x06, 0x09, 0x01, 0x02, 0x01, 0x09, 0x07, 0x05, 0xfe,
  0x06, 0x0a, 0x09, 0x02, 0xfc, 0xfd, 0xfc, 0xf9, 0xf5, 0x00, 0xfd, 0x00, 0x09, 0x11, 0x0a, 0x0b,
  0x02, 0xff, 0xf8, 0xf9, 0xff, 0x17, 0x7f, 0xff, 0x00, 0x00, 0xff, 0xfe, 0xfd, 0x00, 0x01, 0xfe,
  0xfe, 0xff, 0xff, 0x02, 0x00, 0x00, 0x03, 0x02, 0xff, 0x01, 0x01, 0x04, 0x00, 0x03, 0x04, 0x04,
  0x01, 0x03, 0x03, 0x04, 0x02, 0x02, 0x02, 0x03, 0x01, 0xff, 0xfe, 0x02, 0xff, 0x00, 0x00, 0xfe,
  0x00, 0xfe, 0xfe, 0xff, 0x00, 0x01, 0x00, 0xff, 0x00, 0xfe, 0xfd, 0x01, 0xfe, 0x02, 0x01, 0x02,
  0x02, 0xfe, 0x00, 0x00, 0xfe, 0xfc, 0xfe, 0x00, 0xff, 0x01, 0x01, 0x01, 0x03, 0xff, 0x00, 0xff,
  0x00, 0x00, 0x01, 0xfe, 0xff, 0xfd, 0xfe, 0x01, 0x01, 0x01, 0x01, 0xfe, 0x01, 0x00, 0xfe, 0xfe,
  0x01, 0xfd, 0xfe, 0xff, 0x01, 0x00, 0x01, 0x02, 0x00, 0x00, 0x01, 0x01, 0x00, 0x01, 0xfd, 0xfc,
  0xff, 0xff, 0xff, 0xfd, 0x01, 0xff, 0xff, 0x00, 0x01, 0xfe, 0x01, 0x01, 0x00, 0x02, 0x00, 0x01,
  0x02, 0x02, 0x01, 0x00, 0x00, 0xfe, 0x00, 0xff, 0xff, 0x00, 0xfe, 0x00, 0x00, 0xff, 0x00, 0x00,
  0x00, 0x00, 0x02, 0x00, 0x01, 0x00, 0x02, 0x03, 0x04, 0x03, 0x03, 0x01, 0x02, 0x00, 0xff, 0x02,
  0x01, 0x00, 0xfd, 0xfe, 0xfe, 0xfd, 0x00, 0xfe, 0x00, 0x01, 0x00, 0xff, 0x00, 0x02, 0x02, 0x04,
  0x01, 0x00, 0x00, 0x02, 0x01, 0x00, 0x04, 0x01, 0x02, 0xff, 0xfe, 0xff, 0xfe, 0x00, 0x00, 0x01,
  0xff, 0x01, 0x00, 0x00, 0x02, 0x02, 0xff, 0xfe, 0x02, 0x04, 0x03, 0x02, 0x02, 0x04, 0x03, 0x01,
  0x01, 0x00, 0xff, 0x02, 0x00, 0x01, 0x01, 0xff, 0x03, 0x01, 0xff, 0xff, 0xfe, 0x00, 0x03, 0x01,
  0x00, 0x04, 0x00, 0xfe, 0x01, 0x01, 0xfe, 0xff, 0x00, 0x00, 0xfe, 0x00, 0x01, 0xff, 0x01, 0xfc,
  0xfd, 0xff, 0xfe, 0x00, 0x00, 0x01, 0x01, 0x03, 0x02, 0x02, 0x02, 0xfe, 0xfe, 0x01, 0xff, 0x03,
  0x00, 0x00, 0x01, 0x04, 0x01, 0x01, 0x02, 0x02, 0xff, 0x01, 0x00, 0x00, 0x01, 0x02, 0x01, 0x02,
  0x01, 0xfd, 0xfe, 0xfd, 0x01, 0xfe, 0x00, 0xff, 0x01, 0x02, 0x04, 0x00, 0x01, 0xff, 0xff, 0xff,
  0x00, 0xff, 0x01, 0x03, 0xff, 0x00, 0x01, 0x01, 0xfe, 0xfe, 0xfc, 0xfe, 0x01, 0x01, 0x00, 0x00,
  0x02, 0x02, 0x04, 0x00, 0x03, 0x00, 0x00, 0x00, 0xfe, 0xff, 0xfe, 0x01, 0xfd, 0x00, 0x00, 0x00,
  0x00, 0xff, 0xfe, 0x00, 0xff, 0xfd, 0x01, 0xfe, 0x00, 0x01, 0x03, 0x00, 0x00, 0x03, 0x00, 0x02,
  0xff, 0x00, 0x00, 0xfc, 0xfb, 0xfe, 0xfd, 0xfe, 0xfd, 0xfc, 0xff, 0xfd, 0xff, 0xfe, 0xfd, 0x01,
  0xff, 0x02, 0x02, 0x05, 0x01, 0x02, 0x04, 0x03, 0x03, 0x02, 0x01, 0x03, 0x00, 0xff, 0x00, 0xff,
  0x00, 0xfe, 0x00, 0xff, 0x02, 0x02, 0xff, 0x02, 0x00, 0x02, 0x00, 0x04, 0x02, 0x02, 0x01, 0x00,
  0xfd, 0xfd, 0xfd, 0xff, 0xfc, 0xff, 0xfd, 0x01, 0x03, 0x04, 0x02, 0x06, 0x02, 0x06, 0x01, 0x02,
  0x02, 0x00, 0xfe, 0xfe, 0xfd, 0xfe, 0xff, 0xff, 0xff, 0x03, 0x03, 0x02, 0x01, 0xff, 0x00, 0x03,
  0x01, 0x01, 0x01, 0xfe, 0xfe, 0xfd, 0xfd, 0xff, 0xfd, 0x00, 0xfe, 0x00, 0xff, 0xff, 0x01, 0x00,
  0x01, 0x01, 0x00, 0xfe, 0xff, 0x02, 0x00, 0x02, 0x03, 0x03, 0x02, 0x05, 0x04, 0x02, 0x00, 0xff,
  0xff, 0x02, 0x01, 0x00, 0x00, 0x00, 0x01, 0xfe, 0x01, 0xff, 0xfd, 0x01, 0xff, 0x01, 0x01, 0x03,
  0x00, 0xfd, 0xfd, 0xfc, 0x00, 0x00, 0x00, 0x00, 0x04, 0x00, 0x04, 0x01, 0x01, 0x01, 0x02, 0x04,
  0x04, 0x03, 0x05, 0x04, 0x04, 0x02, 0xff, 0xff, 0xff, 0x00, 0xfc, 0xfe, 0xff, 0xff, 0xfb, 0xfe,
  0xff, 0xfe, 0xfe, 0xfe, 0xff, 0x01, 0x00, 0x01, 0xfe, 0xfd, 0xfc, 0xfd, 0xfe, 0x00, 0x00, 0x08,
  0x0b, 0x10, 0x0d, 0x02, 0xe4, 0x81, 0x01, 0x02, 0x00, 0xff, 0xfe, 0x01, 0xff, 0x02, 0x02, 0x02,
  0x00, 0x01, 0x01, 0x03, 0x02, 0x02, 0xff, 0x00, 0xff, 0x02, 0x03, 0x03, 0x00, 0x00, 0x00, 0xff,
  0x00, 0x02, 0x00, 0xff, 0xff, 0xff, 0x03, 0x01, 0x01, 0x00, 0xff, 0xff, 0x00, 0x00, 0xff, 0xff,
  0x01, 0xff, 0x00, 0xff, 0x00, 0x00, 0xfd, 0xfc, 0x00, 0xfd, 0x00, 0xfe, 0xfd, 0xfe, 0xff, 0xff,
  0x00, 0xfd, 0x00, 0x01, 0xff, 0x00, 0xff, 0x02, 0xff, 0x02, 0x03, 0x00, 0x01, 0xff, 0xfd, 0xfd,
  0xfd, 0xff, 0x00, 0xff, 0xfe, 0xfd, 0xfd, 0xfd, 0xfe, 0x01, 0x00, 0xff, 0x02, 0x00, 0xfe, 0x01,
  0x03, 0x02, 0x02, 0x02, 0x02, 0x00, 0x02, 0xfe, 0xff, 0xff, 0xfc, 0xfd, 0xfd, 0xff, 0xff, 0xfe,
  0xfd, 0xff, 0xff, 0xff, 0xfd, 0xfd, 0xff, 0x00, 0xfe, 0xfe, 0xfe, 0xfd, 0x00, 0x00, 0x00, 0x00,
  0x01, 0xfe, 0x02, 0x00, 0x01, 0x01, 0x00, 0xff, 0x00, 0x02, 0x00, 0x01, 0xfe, 0xff, 0xfe, 0xfe,
  0xfd, 0xff, 0xff, 0x00, 0x01, 0xff, 0x00, 0x04, 0x04, 0x00, 0x00, 0x00, 0xff, 0x01, 0xff, 0xff,
  0xff, 0x01, 0x03, 0x03, 0x01, 0x02, 0xff, 0x02, 0x01, 0x00, 0xff, 0x01, 0x02, 0x03, 0x01, 0x00,
  0x00, 0x00, 0xfe, 0xff, 0xfd, 0xfe, 0xfe, 0x02, 0x02, 0x00, 0x04, 0x04, 0x00, 0x01, 0x00, 0x02,
  0x00, 0x01, 0xfd, 0x00, 0x01, 0xfe, 0xfd, 0x00, 0x00, 0x04, 0x01, 0x03, 0x03, 0xff, 0xfe, 0xff,
  0xff, 0xfe, 0xfe, 0xfc, 0xff, 0xff, 0x02, 0x01, 0x01, 0x00, 0x01, 0x00, 0x02, 0x01, 0x01, 0x03,
  0x04, 0x02, 0x00, 0x02, 0x00, 0x01, 0x00, 0xfe, 0xff, 0xff, 0x02, 0x02, 0x02, 0x02, 0x00, 0x02,
  0xff, 0x03, 0xff, 0x00, 0x01, 0x02, 0x00, 0x01, 0xff, 0x00, 0x02, 0x00, 0x02, 0x01, 0xfe, 0xfd,
  0xff, 0x01, 0xfe, 0x02, 0x01, 0x01, 0x00, 0x02, 0xff, 0x01, 0x02, 0x02, 0x00, 0x01, 0x00, 0xff,
  0x01, 0x02, 0x01, 0x02, 0x00, 0x00, 0xff, 0x00, 0xff, 0xfe, 0x01, 0xfe, 0xff, 0xff, 0x01, 0x01,
  0xff, 0xff, 0xff, 0xfe, 0x00, 0x02, 0x00, 0x02, 0x00, 0x02, 0x02, 0x00, 0x02, 0x00, 0x01, 0x03,
  0x02, 0xff, 0x02, 0xfe, 0xfc, 0xfe, 0xfd, 0x00, 0xff, 0x02, 0x02, 0x01, 0x01, 0x03, 0x01, 0x00,
  0xfe, 0xff, 0xfd, 0xfb, 0xfd, 0x01, 0x01, 0x00, 0xff, 0xfe, 0x01, 0xff, 0x00, 0x01, 0xff, 0x01,
  0x00, 0xff, 0x00, 0x02, 0x01, 0x02, 0xff, 0x00, 0x02, 0x01, 0x00, 0x02, 0x05, 0x01, 0x01, 0xff,
  0x00, 0xff, 0xff, 0xfd, 0xfd, 0xff, 0xff, 0xfd, 0xff, 0x01, 0xfd, 0x01, 0x00, 0xfc, 0xfe, 0xfe,
